<unk>	0
▁a	-0
in	-1
<BOS>	0
<EOS>	0
<PAD>	0
▁t	-2
▁o	-3
▁s	-4
ing	-5
it	-6
▁b	-7
▁A	-8
▁w	-9
he	-10
▁p	-11
an	-12
re	-13
▁c	-14
le	-15
er	-16
▁on	-17
at	-18
▁of	-19
▁in	-20
ar	-21
ro	-22
▁the	-23
▁an	-24
▁f	-25
is	-26
▁m	-27
▁wit	-28
▁with	-29
▁h	-30
▁and	-31
▁d	-32
▁g	-33
al	-34
en	-35
▁to	-36
▁l	-37
▁st	-38
om	-39
ra	-40
ding	-41
es	-42
on	-43
ck	-44
ed	-45
ow	-46
▁is	-47
or	-48
et	-49
un	-50
la	-51
▁T	-52
ir	-53
▁n	-54
▁man	-55
as	-56
ting	-57
op	-58
▁sit	-59
all	-60
ch	-61
up	-62
ri	-63
oo	-64
▁ne	-65
il	-66
el	-67
ot	-68
ut	-69
▁wh	-70
id	-71
ur	-72
▁stan	-73
▁sitting	-74
ol	-75
ge	-76
ers	-77
▁are	-78
▁th	-79
wo	-80
ic	-81
ard	-82
us	-83
ab	-84
ite	-85
▁at	-86
king	-87
ig	-88
her	-89
▁co	-90
ss	-91
▁be	-92
▁sk	-93
▁e	-94
ying	-95
▁re	-96
▁standing	-97
eop	-98
eople	-99
▁tra	-100
eb	-101
ide	-102
▁ro	-103
oard	-104
ad	-105
xt	-106
able	-107
▁wom	-108
▁next	-109
▁k	-110
ve	-111
▁people	-112
▁do	-113
▁white	-114
ver	-115
lo	-116
▁pla	-117
ile	-118
ff	-119
▁The	-120
▁it	-121
▁woman	-122
▁hol	-123
▁table	-124
und	-125
▁pl	-126
▁stre	-127
ome	-128
▁street	-129
▁fro	-130
ood	-131
▁fi	-132
▁Two	-133
▁bo	-134
▁holding	-135
▁ri	-136
ce	-137
▁that	-138
▁par	-139
▁sh	-140
▁la	-141
own	-142
▁top	-143
▁gro	-144
▁y	-145
▁gra	-146
ate	-147
erson	-148
nt	-149
▁sm	-150
▁person	-151
▁ch	-152
▁bat	-153
arge	-154
oun	-155
ant	-156
▁down	-157
▁large	-158
▁some	-159
um	-160
▁wat	-161
and	-162
▁cat	-163
am	-164
che	-165
▁v	-166
▁up	-167
▁pi	-168
▁clo	-169
ion	-170
eld	-171
▁fl	-172
ach	-173
▁sn	-174
▁S	-175
ul	-176
▁out	-177
▁field	-178
▁group	-179
▁dog	-180
▁near	-181
ke	-182
▁car	-183
se	-184
▁snow	-185
▁ten	-186
nis	-187
ign	-188
▁two	-189
▁train	-190
lack	-191
▁front	-192
▁his	-193
▁wal	-194
ack	-195
▁park	-196
▁tennis	-197
ree	-198
▁small	-199
▁ra	-200
ug	-201
▁bus	-202
▁sur	-203
▁bas	-204
▁sign	-205
st	-206
ht	-207
room	-208
▁room	-209
▁black	-210
row	-211
ure	-212
▁plate	-213
▁riding	-214
ay	-215
ind	-216
ell	-217
oung	-218
▁grass	-219
▁side	-220
▁bl	-221
▁kit	-222
ue	-223
▁bu	-224
▁water	-225
▁by	-226
▁air	-227
▁ph	-228
im	-229
▁red	-230
round	-231
one	-232
▁loo	-233
ain	-234
ving	-235
▁surf	-236
▁young	-237
board	-238
▁buil	-239
ru	-240
ph	-241
eball	-242
ffe	-243
side	-244
▁bed	-245
▁bath	-246
▁building	-247
red	-248
reen	-249
ink	-250
air	-251
▁An	-252
▁baseball	-253
▁has	-254
▁skat	-255
▁play	-256
ter	-257
▁while	-258
▁com	-259
▁playing	-260
▁walking	-261
pt	-262
▁skateb	-263
ight	-264
zz	-265
▁bathroom	-266
yc	-267
ds	-268
▁for	-269
▁j	-270
▁food	-271
▁gi	-272
▁her	-273
ct	-274
▁blue	-275
▁hor	-276
▁ot	-277
chen	-278
▁pizz	-279
▁po	-280
aring	-281
▁other	-282
ycle	-283
▁kitchen	-284
▁back	-285
age	-286
▁wood	-287
▁skateboard	-288
umb	-289
▁green	-290
▁mot	-291
irt	-292
ep	-293
▁ele	-294
ie	-295
▁parked	-296
▁pizza	-297
▁P	-298
▁li	-299
▁boy	-300
▁gira	-301
▁se	-302
▁ball	-303
ugh	-304
ran	-305
▁motor	-306
▁looking	-307
▁ski	-308
tle	-309
▁over	-310
▁le	-311
▁he	-312
ity	-313
get	-314
ture	-315
▁beach	-316
▁eat	-317
irl	-318
ilet	-319
▁ben	-320
▁we	-321
uple	-322
▁toilet	-323
phant	-324
▁clock	-325
▁z	-326
▁bear	-327
▁ca	-328
▁couple	-329
▁wa	-330
▁des	-331
rel	-332
▁elephant	-333
ent	-334
▁girl	-335
▁comp	-336
▁pic	-337
▁road	-338
ame	-339
ild	-340
▁con	-341
ane	-342
led	-343
▁Th	-344
rella	-345
▁men	-346
▁B	-347
▁umb	-348
ee	-349
▁umbrella	-350
▁city	-351
▁flying	-352
▁dis	-353
cks	-354
▁picture	-355
lass	-356
ris	-357
▁motorc	-358
▁wearing	-359
▁board	-360
dy	-361
▁tow	-362
ptop	-363
▁player	-364
ub	-365
▁she	-366
▁wind	-367
ous	-368
▁laptop	-369
▁al	-370
▁sl	-371
▁motorcycle	-372
ill	-373
ine	-374
▁game	-375
veral	-376
▁M	-377
ebra	-378
pp	-379
▁laying	-380
ong	-381
▁from	-382
▁sits	-383
▁comput	-384
ld	-385
▁pas	-386
tain	-387
▁child	-388
rown	-389
▁wooden	-390
▁sand	-391
▁int	-392
▁bench	-393
▁window	-394
rough	-395
▁zebra	-396
▁sink	-397
▁W	-398
▁area	-399
ks	-400
▁glass	-401
▁r	-402
▁through	-403
▁their	-404
▁C	-405
▁F	-406
▁airp	-407
▁wall	-408
▁as	-409
pen	-410
risb	-411
▁chair	-412
▁tru	-413
ellow	-414
▁around	-415
▁boat	-416
▁eating	-417
ase	-418
▁horse	-419
▁cake	-420
▁brown	-421
ull	-422
▁light	-423
▁yellow	-424
▁phone	-425
▁sc	-426
▁ta	-427
risbee	-428
▁hand	-429
▁computer	-430
▁und	-431
oto	-432
▁old	-433
▁under	-434
▁stop	-435
ort	-436
▁desk	-437
ice	-438
▁bir	-439
▁de	-440
▁photo	-441
▁giraffe	-442
uit	-443
way	-444
▁outside	-445
▁lit	-446
▁open	-447
bo	-448
▁one	-449
▁ve	-450
▁tre	-451
▁sp	-452
▁truck	-453
▁living	-454
cc	-455
▁sw	-456
▁close	-457
ross	-458
▁fire	-459
▁flo	-460
▁mo	-461
ag	-462
▁te	-463
▁surfboard	-464
▁There	-465
vered	-466
▁ban	-467
▁bow	-468
▁trees	-469
ap	-470
▁tree	-471
very	-472
▁coun	-473
▁bun	-474
ger	-475
▁each	-476
les	-477
ation	-478
▁covered	-479
▁lot	-480
ady	-481
▁bri	-482
▁di	-483
▁col	-484
▁en	-485
▁cour	-486
ore	-487
▁fil	-488
▁cell	-489
qu	-490
ses	-491
▁cow	-492
hind	-493
▁Three	-494
▁suit	-495
▁behind	-496
▁very	-497
▁filled	-498
▁banan	-499
▁so	-500
▁bowl	-501
ground	-502
▁off	-503
pla	-504
▁court	-505
ves	-506
▁sky	-507
uch	-508
▁oran	-509
▁cut	-510
▁its	-511
▁O	-512
ump	-513
▁flow	-514
if	-515
▁little	-516
▁fen	-517
ets	-518
▁show	-519
▁into	-520
eat	-521
ction	-522
gether	-523
▁together	-524
ors	-525
▁kite	-526
▁abo	-527
▁rack	-528
ich	-529
iew	-530
ts	-531
ly	-532
ush	-533
▁sandw	-534
▁run	-535
▁moun	-536
▁Se	-537
▁background	-538
▁bi	-539
▁airpl	-540
▁dri	-541
alk	-542
dle	-543
▁skis	-544
ped	-545
▁shirt	-546
▁frisbee	-547
▁inside	-548
▁Several	-549
▁stands	-550
irro	-551
▁mirro	-552
ry	-553
▁mirror	-554
▁bunch	-555
▁couch	-556
▁view	-557
▁pre	-558
▁displa	-559
walk	-560
▁ma	-561
cean	-562
dr	-563
▁ocean	-564
▁I	-565
ffic	-566
▁big	-567
▁People	-568
▁go	-569
▁sheep	-570
▁hy	-571
▁pie	-572
do	-573
▁counter	-574
▁bird	-575
drant	-576
▁hot	-577
▁many	-578
ches	-579
rent	-580
▁app	-581
▁hydrant	-582
▁swing	-583
▁mid	-584
▁veget	-585
orm	-586
▁fence	-587
eddy	-588
▁Man	-589
▁airplane	-590
other	-591
▁floor	-592
uff	-593
▁hill	-594
▁display	-595
▁sandwich	-596
▁traffic	-597
ang	-598
ching	-599
▁ref	-600
▁another	-601
▁che	-602
▁head	-603
▁teddy	-604
▁dirt	-605
fferent	-606
▁L	-607
ment	-608
sing	-609
▁vegetable	-610
ted	-611
▁sidewalk	-612
▁tri	-613
imal	-614
ies	-615
▁orange	-616
ner	-617
ress	-618
▁stand	-619
▁wave	-620
▁mountain	-621
▁women	-622
▁animal	-623
▁different	-624
iling	-625
▁plane	-626
mp	-627
ruit	-628
▁jump	-629
▁tower	-630
ouse	-631
▁tracks	-632
▁fe	-633
▁met	-634
ook	-635
▁tall	-636
ffes	-637
▁flowers	-638
▁vase	-639
etting	-640
▁hit	-641
▁there	-642
▁bab	-643
▁parking	-644
▁along	-645
ace	-646
▁racket	-647
ip	-648
▁G	-649
▁fruit	-650
▁day	-651
▁ground	-652
▁tie	-653
▁sa	-654
▁im	-655
▁plat	-656
▁baby	-657
ugg	-658
▁horses	-659
▁rid	-660
▁bro	-661
te	-662
ren	-663
▁vegetables	-664
▁sun	-665
▁grassy	-666
vel	-667
▁graz	-668
our	-669
▁ar	-670
▁three	-671
▁being	-672
▁bot	-673
ket	-674
▁giraffes	-675
▁full	-676
▁us	-677
▁TH	-678
ick	-679
▁hang	-680
▁snowboard	-681
▁cars	-682
hes	-683
ey	-684
ari	-685
▁rest	-686
uring	-687
▁slop	-688
▁station	-689
rying	-690
ated	-691
▁middle	-692
hing	-693
kes	-694
ven	-695
ac	-696
▁stuff	-697
▁Some	-698
▁ready	-699
▁cl	-700
▁dress	-701
▁elephants	-702
▁cup	-703
▁bananas	-704
ave	-705
▁dr	-706
▁several	-707
▁image	-708
▁un	-709
urn	-710
▁zebras	-711
igh	-712
▁taking	-713
ator	-714
▁cam	-715
▁hat	-716
▁bes	-717
▁them	-718
▁gu	-719
▁box	-720
▁pro	-721
▁cor	-722
▁bike	-723
▁driving	-724
▁signs	-725
▁crow	-726
▁slope	-727
oli	-728
ult	-729
IN	-730
rol	-731
ade	-732
▁ac	-733
▁lo	-734
▁cross	-735
ched	-736
▁piece	-737
▁above	-738
dge	-739
ler	-740
▁crowd	-741
▁stuffed	-742
▁wine	-743
ccoli	-744
▁sto	-745
uggage	-746
▁across	-747
ess	-748
▁grazing	-749
▁ad	-750
▁beside	-751
▁cont	-752
▁refri	-753
▁prep	-754
uts	-755
▁kn	-756
▁long	-757
▁pass	-758
▁refriger	-759
▁skiing	-760
▁em	-761
▁luggage	-762
▁snowy	-763
▁travel	-764
▁This	-765
▁broccoli	-766
▁wor	-767
▁key	-768
▁hanging	-769
ms	-770
▁camer	-771
▁skate	-772
▁vari	-773
▁during	-774
▁holds	-775
cor	-776
▁door	-777
▁refrigerator	-778
iting	-779
RE	-780
▁tele	-781
der	-782
▁glasses	-783
▁fri	-784
ii	-785
▁bag	-786
▁D	-787
▁camera	-788
▁H	-789
▁guy	-790
▁kid	-791
▁tal	-792
▁doing	-793
▁cows	-794
▁THE	-795
▁cle	-796
ust	-797
▁bic	-798
▁pink	-799
▁don	-800
are	-801
ak	-802
▁doub	-803
▁rem	-804
ning	-805
▁past	-806
▁buildings	-807
ese	-808
▁pole	-809
▁color	-810
▁herd	-811
▁keyboard	-812
▁pap	-813
▁rac	-814
▁oven	-815
pty	-816
ful	-817
sh	-818
vis	-819
▁decor	-820
ING	-821
▁pair	-822
▁this	-823
▁control	-824
▁cutting	-825
▁per	-826
▁corner	-827
▁double	-828
▁going	-829
▁track	-830
▁umbrellas	-831
▁cab	-832
▁ser	-833
▁who	-834
▁stove	-835
▁empty	-836
▁walk	-837
▁passen	-838
▁looks	-839
▁bicycle	-840
▁watching	-841
▁trick	-842
vision	-843
▁television	-844
rush	-845
▁high	-846
▁pot	-847
▁children	-848
▁jumping	-849
form	-850
▁kites	-851
▁chairs	-852
ccer	-853
▁bottle	-854
▁talking	-855
▁cur	-856
▁bre	-857
▁mar	-858
▁ag	-859
▁soccer	-860
▁pit	-861
▁dogs	-862
▁traveling	-863
▁me	-864
▁posing	-865
ideo	-866
ten	-867
▁video	-868
▁suitc	-869
▁smiling	-870
▁swinging	-871
ans	-872
ght	-873
▁din	-874
▁airport	-875
▁ste	-876
▁set	-877
▁topped	-878
▁remot	-879
▁using	-880
▁body	-881
▁boats	-882
pe	-883
▁getting	-884
▁contain	-885
ces	-886
▁cabin	-887
ire	-888
oes	-889
▁paper	-890
▁animals	-891
▁pain	-892
▁pat	-893
▁again	-894
ast	-895
▁against	-896
ft	-897
ping	-898
▁night	-899
oth	-900
quet	-901
▁colorful	-902
▁fore	-903
▁lady	-904
▁throw	-905
gs	-906
ffee	-907
▁mon	-908
▁brick	-909
leep	-910
▁home	-911
▁all	-912
ud	-913
▁rail	-914
arding	-915
▁coffee	-916
▁birds	-917
▁ite	-918
▁carrying	-919
▁river	-920
▁plates	-921
▁jet	-922
▁deck	-923
▁cheese	-924
cher	-925
▁him	-926
▁banana	-927
▁Frisbee	-928
omet	-929
aur	-930
▁meat	-931
▁bar	-932
ive	-933
▁pull	-934
aurant	-935
▁tray	-936
omething	-937
▁bedroom	-938
▁lea	-939
ian	-940
▁house	-941
iss	-942
▁restaurant	-943
▁waiting	-944
▁something	-945
▁drink	-946
ored	-947
est	-948
▁motorcycles	-949
ark	-950
▁bears	-951
▁lights	-952
uth	-953
▁lin	-954
clo	-955
▁remote	-956
▁Wii	-957
▁metal	-958
▁lots	-959
▁pol	-960
▁shower	-961
▁shel	-962
ool	-963
▁ha	-964
▁boo	-965
▁can	-966
▁plant	-967
alf	-968
▁runway	-969
ced	-970
▁players	-971
▁various	-972
▁or	-973
▁face	-974
▁racquet	-975
▁tile	-976
▁sleep	-977
clos	-978
▁about	-979
▁items	-980
▁R	-981
▁ramp	-982
▁row	-983
▁outdo	-984
▁enclos	-985
erse	-986
▁clou	-987
▁running	-988
▁toy	-989
▁res	-990
ases	-991
ars	-992
ial	-993
▁dough	-994
▁mic	-995
▁pile	-996
▁carro	-997
▁book	-998
gra	-999
oc	-1000
▁att	-1001
▁line	-1002
▁store	-1003
▁interse	-1004
ty	-1005
▁busy	-1006
▁skateboarder	-1007
▁mouth	-1008
▁skier	-1009
▁rain	-1010
▁hands	-1011
▁screen	-1012
▁hel	-1013
▁intersection	-1014
▁lying	-1015
▁pur	-1016
▁passenger	-1017
arm	-1018
▁toward	-1019
▁dressed	-1020
▁ce	-1021
▁slic	-1022
▁surfer	-1023
▁monit	-1024
▁N	-1025
IT	-1026
▁doughn	-1027
ooking	-1028
▁seat	-1029
▁Four	-1030
▁numb	-1031
▁sil	-1032
▁suitcase	-1033
▁surfing	-1034
we	-1035
▁like	-1036
▁IS	-1037
▁whe	-1038
▁V	-1039
▁rock	-1040
▁photogra	-1041
▁shown	-1042
ple	-1043
ife	-1044
▁tub	-1045
raw	-1046
▁half	-1047
▁pan	-1048
▁preparing	-1049
ges	-1050
ones	-1051
▁slice	-1052
▁rides	-1053
▁brush	-1054
hic	-1055
uce	-1056
▁gre	-1057
▁male	-1058
art	-1059
▁decker	-1060
▁made	-1061
▁jack	-1062
▁pulling	-1063
issors	-1064
▁look	-1065
▁dark	-1066
cl	-1067
ale	-1068
▁gray	-1069
▁surround	-1070
to	-1071
▁ty	-1072
phone	-1073
▁batter	-1074
▁sleeping	-1075
ading	-1076
▁mat	-1077
▁bridge	-1078
▁no	-1079
▁enclosure	-1080
ny	-1081
▁number	-1082
▁zoo	-1083
iz	-1084
▁silver	-1085
▁scissors	-1086
▁four	-1087
ating	-1088
▁E	-1089
▁microw	-1090
▁vehic	-1091
▁tooth	-1092
▁controller	-1093
▁bet	-1094
▁St	-1095
▁post	-1096
▁knife	-1097
▁hair	-1098
ll	-1099
ather	-1100
ond	-1101
▁Y	-1102
▁surrounded	-1103
ween	-1104
▁way	-1105
AN	-1106
▁forest	-1107
▁between	-1108
▁donuts	-1109
aning	-1110
▁jacket	-1111
▁microwave	-1112
▁ON	-1113
▁showing	-1114
▁Many	-1115
ron	-1116
gg	-1117
▁colored	-1118
AT	-1119
▁pill	-1120
▁meal	-1121
▁photograph	-1122
eath	-1123
▁decorated	-1124
▁bread	-1125
iform	-1126
▁lake	-1127
lic	-1128
▁sal	-1129
ash	-1130
▁lined	-1131
▁cabinets	-1132
▁few	-1133
▁walks	-1134
▁kids	-1135
▁count	-1136
▁carrots	-1137
ved	-1138
▁uniform	-1139
ne	-1140
▁Wom	-1141
anes	-1142
▁blan	-1143
elf	-1144
ached	-1145
pes	-1146
▁mouse	-1147
▁am	-1148
▁bright	-1149
iture	-1150
ime	-1151
▁scen	-1152
▁furn	-1153
▁"	-1154
▁cand	-1155
ries	-1156
▁furniture	-1157
▁bran	-1158
▁buses	-1159
▁dock	-1160
▁stick	-1161
▁books	-1162
▁stri	-1163
▁purple	-1164
▁boys	-1165
▁older	-1166
ows	-1167
ser	-1168
▁Ch	-1169
▁dish	-1170
▁have	-1171
▁outdoor	-1172
▁pick	-1173
▁TV	-1174
▁cloudy	-1175
▁shop	-1176
atoes	-1177
▁ex	-1178
olate	-1179
▁displayed	-1180
ER	-1181
▁throwing	-1182
▁grey	-1183
▁incl	-1184
pped	-1185
▁attached	-1186
old	-1187
▁pe	-1188
▁girls	-1189
▁waves	-1190
▁oranges	-1191
▁stat	-1192
ocolate	-1193
▁fork	-1194
day	-1195
▁coming	-1196
▁monitor	-1197
▁onto	-1198
▁leaning	-1199
▁making	-1200
met	-1201
ings	-1202
oon	-1203
ily	-1204
▁fla	-1205
▁windows	-1206
▁clean	-1207
▁chocolate	-1208
▁Woman	-1209
inking	-1210
▁shelf	-1211
▁perform	-1212
▁crossing	-1213
ish	-1214
▁adult	-1215
▁skiers	-1216
▁stone	-1217
▁salad	-1218
▁ho	-1219
ance	-1220
▁dining	-1221
irth	-1222
▁rocks	-1223
▁scene	-1224
▁painted	-1225
ble	-1226
irthday	-1227
▁hitting	-1228
▁drinking	-1229
▁lush	-1230
by	-1231
▁seen	-1232
▁watch	-1233
▁cats	-1234
▁meter	-1235
▁flower	-1236
▁turn	-1237
▁ob	-1238
▁mult	-1239
▁OF	-1240
male	-1241
▁basket	-1242
LE	-1243
▁walls	-1244
els	-1245
de	-1246
▁resting	-1247
▁pen	-1248
▁cook	-1249
▁towards	-1250
▁market	-1251
▁comm	-1252
▁spe	-1253
▁ed	-1254
▁lamp	-1255
▁birthday	-1256
▁elect	-1257
int	-1258
ken	-1259
aut	-1260
ublic	-1261
▁country	-1262
▁fre	-1263
▁eng	-1264
oot	-1265
▁sunny	-1266
ents	-1267
ary	-1268
▁office	-1269
▁clear	-1270
▁setting	-1271
▁fries	-1272
▁lay	-1273
▁fruits	-1274
stic	-1275
per	-1276
eth	-1277
▁IN	-1278
▁blanket	-1279
▁work	-1280
▁public	-1281
▁tables	-1282
▁pa	-1283
▁catch	-1284
▁someone	-1285
▁clot	-1286
autif	-1287
▁leaves	-1288
▁moving	-1289
ear	-1290
▁apples	-1291
▁Sm	-1292
aching	-1293
▁female	-1294
▁stopped	-1295
jo	-1296
▁plastic	-1297
▁been	-1298
▁ass	-1299
▁edge	-1300
less	-1301
▁catcher	-1302
▁teeth	-1303
▁surfboards	-1304
▁helmet	-1305
▁enjo	-1306
sp	-1307
▁platform	-1308
▁mountains	-1309
▁path	-1310
autiful	-1311
▁pictures	-1312
ats	-1313
▁shot	-1314
▁tom	-1315
▁not	-1316
▁tv	-1317
▁smile	-1318
▁working	-1319
▁Black	-1320
▁bikes	-1321
lection	-1322
neath	-1323
▁stack	-1324
▁ride	-1325
▁short	-1326
▁underneath	-1327
▁donut	-1328
▁part	-1329
▁cre	-1330
▁topping	-1331
▁trying	-1332
▁toothb	-1333
▁squ	-1334
tered	-1335
▁AN	-1336
▁bel	-1337
ety	-1338
▁branch	-1339
▁ur	-1340
▁sub	-1341
▁beautiful	-1342
▁cart	-1343
hed	-1344
▁statue	-1345
▁apple	-1346
▁shap	-1347
oll	-1348
▁dist	-1349
▁yard	-1350
hered	-1351
oarding	-1352
▁snowboarder	-1353
▁police	-1354
AR	-1355
▁but	-1356
▁base	-1357
ally	-1358
▁lap	-1359
▁slices	-1360
▁Someone	-1361
▁carri	-1362
▁Young	-1363
▁time	-1364
▁skateboarding	-1365
▁placed	-1366
▁van	-1367
len	-1368
▁wet	-1369
▁shows	-1370
▁having	-1371
▁pitch	-1372
▁perched	-1373
▁pep	-1374
run	-1375
▁Small	-1376
▁cellphone	-1377
ist	-1378
inal	-1379
▁fac	-1380
▁shore	-1381
▁draw	-1382
▁sing	-1383
▁computers	-1384
▁case	-1385
▁pieces	-1386
wn	-1387
▁nice	-1388
ling	-1389
▁sho	-1390
▁THERE	-1391
▁passing	-1392
▁wild	-1393
▁pitcher	-1394
gers	-1395
ric	-1396
▁dire	-1397
top	-1398
▁wire	-1399
▁surface	-1400
▁K	-1401
ares	-1402
▁put	-1403
▁gar	-1404
▁fresh	-1405
ect	-1406
▁sandy	-1407
▁fam	-1408
▁cooking	-1409
dern	-1410
▁appl	-1411
▁assort	-1412
▁vehicle	-1413
▁eaten	-1414
ITH	-1415
▁dry	-1416
▁WITH	-1417
▁Gro	-1418
▁neck	-1419
▁laptops	-1420
▁mil	-1421
▁vases	-1422
ix	-1423
ition	-1424
▁conc	-1425
▁Large	-1426
▁doughnut	-1427
▁Group	-1428
▁boards	-1429
▁types	-1430
▁brushing	-1431
▁dinner	-1432
▁applian	-1433
ines	-1434
▁land	-1435
▁hotel	-1436
▁pizzas	-1437
▁tan	-1438
▁sauce	-1439
▁tiled	-1440
▁reading	-1441
▁beer	-1442
ery	-1443
▁ey	-1444
iple	-1445
▁toppings	-1446
inten	-1447
intendo	-1448
▁arm	-1449
bor	-1450
▁others	-1451
▁trun	-1452
▁watches	-1453
iti	-1454
▁af	-1455
▁just	-1456
▁feat	-1457
▁town	-1458
icken	-1459
th	-1460
▁roll	-1461
▁engine	-1462
ca	-1463
▁they	-1464
▁gat	-1465
ides	-1466
▁trains	-1467
eeding	-1468
▁sty	-1469
▁family	-1470
ley	-1471
▁kind	-1472
▁benches	-1473
▁pret	-1474
os	-1475
ject	-1476
▁plants	-1477
▁take	-1478
ized	-1479
ins	-1480
▁mounted	-1481
▁enjoying	-1482
ffiti	-1483
road	-1484
▁single	-1485
▁curb	-1486
htub	-1487
▁new	-1488
▁doughnuts	-1489
armac	-1490
▁equ	-1491
bb	-1492
ures	-1493
▁bathtub	-1494
▁sof	-1495
▁distance	-1496
▁left	-1497
▁pack	-1498
▁tarmac	-1499
ming	-1500
▁modern	-1501
ely	-1502
▁gear	-1503
▁chicken	-1504
▁phones	-1505
▁after	-1506
▁pretty	-1507
cial	-1508
▁gri	-1509
▁performing	-1510
que	-1511
▁see	-1512
▁flat	-1513
vers	-1514
▁variety	-1515
▁place	-1516
▁shoes	-1517
▁woods	-1518
▁gathered	-1519
▁pad	-1520
▁guys	-1521
▁tricks	-1522
▁trucks	-1523
▁appliances	-1524
▁hotdo	-1525
▁was	-1526
▁sail	-1527
▁bowls	-1528
▁fenced	-1529
▁containing	-1530
edest	-1531
▁fly	-1532
▁.	-1533
▁end	-1534
▁swim	-1535
▁One	-1536
▁arran	-1537
▁glo	-1538
▁graffiti	-1539
place	-1540
▁rice	-1541
▁desser	-1542
▁U	-1543
▁candles	-1544
▁curtain	-1545
ages	-1546
▁flies	-1547
▁cute	-1548
▁bal	-1549
▁well	-1550
▁stair	-1551
▁carriage	-1552
▁pasture	-1553
rete	-1554
▁feeding	-1555
▁concrete	-1556
▁AND	-1557
▁toothbrush	-1558
▁team	-1559
▁tran	-1560
▁below	-1561
▁poles	-1562
▁bottles	-1563
▁fo	-1564
pack	-1565
▁poin	-1566
▁passengers	-1567
uding	-1568
ronic	-1569
▁bags	-1570
▁spoon	-1571
▁railroad	-1572
chool	-1573
▁clut	-1574
▁match	-1575
head	-1576
ram	-1577
enter	-1578
▁foot	-1579
anc	-1580
▁including	-1581
▁ind	-1582
uck	-1583
▁wii	-1584
▁right	-1585
▁dirty	-1586
▁onion	-1587
▁drinks	-1588
iding	-1589
light	-1590
▁takes	-1591
▁steel	-1592
▁pillows	-1593
OM	-1594
▁sofa	-1595
▁break	-1596
▁fireplace	-1597
ini	-1598
ession	-1599
▁pul	-1600
man	-1601
▁among	-1602
▁center	-1603
intage	-1604
▁school	-1605
▁backpack	-1606
ball	-1607
▁ST	-1608
▁step	-1609
ads	-1610
ips	-1611
uches	-1612
▁pulled	-1613
▁striped	-1614
▁Nintendo	-1615
▁alone	-1616
▁pedest	-1617
▁crowded	-1618
▁electronic	-1619
▁wr	-1620
iches	-1621
▁clos	-1622
uge	-1623
▁nearby	-1624
ied	-1625
▁beds	-1626
fe	-1627
upp	-1628
mb	-1629
▁catching	-1630
iv	-1631
▁wra	-1632
AL	-1633
ged	-1634
ower	-1635
▁ap	-1636
urch	-1637
▁trunk	-1638
▁fridge	-1639
▁painting	-1640
▁skateboards	-1641
▁object	-1642
▁cabinet	-1643
ames	-1644
▁container	-1645
▁let	-1646
▁loc	-1647
rist	-1648
▁equip	-1649
▁shaped	-1650
▁feet	-1651
▁cattle	-1652
▁direction	-1653
ered	-1654
▁sinks	-1655
▁equipment	-1656
ens	-1657
▁boxes	-1658
anding	-1659
▁cream	-1660
▁served	-1661
▁huge	-1662
ural	-1663
▁qu	-1664
▁plays	-1665
▁polar	-1666
lin	-1667
fession	-1668
stru	-1669
▁kne	-1670
▁bushes	-1671
▁reaching	-1672
▁sandwiches	-1673
self	-1674
ical	-1675
▁where	-1676
▁putting	-1677
▁mess	-1678
▁church	-1679
▁planes	-1680
▁deser	-1681
aking	-1682
▁floating	-1683
▁wait	-1684
▁smiles	-1685
fessional	-1686
▁stall	-1687
▁poses	-1688
ual	-1689
▁atop	-1690
▁giant	-1691
▁suitcases	-1692
▁round	-1693
▁sticking	-1694
alm	-1695
eling	-1696
▁vintage	-1697
▁trail	-1698
▁taken	-1699
▁prepares	-1700
▁both	-1701
ycl	-1702
▁lays	-1703
▁serve	-1704
▁tomatoes	-1705
▁away	-1706
▁legs	-1707
▁clothes	-1708
wing	-1709
▁towel	-1710
▁cover	-1711
▁hay	-1712
▁gold	-1713
▁space	-1714
▁style	-1715
rus	-1716
▁wed	-1717
ons	-1718
land	-1719
▁bicycles	-1720
▁blo	-1721
glass	-1722
▁rug	-1723
RO	-1724
▁serving	-1725
▁dishes	-1726
sc	-1727
▁sliced	-1728
ercial	-1729
▁staring	-1730
elling	-1731
▁art	-1732
ato	-1733
aked	-1734
▁potatoes	-1735
▁mas	-1736
EN	-1737
iness	-1738
▁check	-1739
ident	-1740
let	-1741
owing	-1742
mas	-1743
▁fa	-1744
IS	-1745
▁pose	-1746
▁stain	-1747
▁vehicles	-1748
fast	-1749
▁blen	-1750
▁offic	-1751
ber	-1752
▁Bo	-1753
▁dev	-1754
▁pos	-1755
ashion	-1756
reet	-1757
▁foods	-1758
▁cement	-1759
glasses	-1760
▁which	-1761
▁multiple	-1762
rench	-1763
▁form	-1764
▁shorts	-1765
▁reflection	-1766
▁pool	-1767
ristmas	-1768
ise	-1769
▁design	-1770
iny	-1771
unch	-1772
▁Street	-1773
▁Sk	-1774
▁stacked	-1775
▁business	-1776
OP	-1777
▁cra	-1778
▁Z	-1779
ward	-1780
boarding	-1781
ique	-1782
vent	-1783
out	-1784
aded	-1785
▁smo	-1786
▁tour	-1787
ular	-1788
vert	-1789
▁ump	-1790
ils	-1791
▁same	-1792
ract	-1793
hite	-1794
▁airplanes	-1795
▁ARE	-1796
▁subway	-1797
▁win	-1798
▁pillow	-1799
ban	-1800
▁commercial	-1801
▁Person	-1802
urry	-1803
▁del	-1804
▁soup	-1805
▁straw	-1806
io	-1807
ants	-1808
▁swings	-1809
ists	-1810
arden	-1811
▁professional	-1812
▁As	-1813
▁trash	-1814
▁surfers	-1815
▁mother	-1816
▁outdoors	-1817
▁breakfast	-1818
▁roo	-1819
AS	-1820
▁docked	-1821
▁seated	-1822
▁outf	-1823
▁umpire	-1824
▁urinal	-1825
▁low	-1826
▁farm	-1827
▁kitten	-1828
▁dessert	-1829
▁frien	-1830
▁Do	-1831
ates	-1832
▁games	-1833
▁sunglasses	-1834
▁swimming	-1835
▁garden	-1836
▁square	-1837
▁flag	-1838
▁hard	-1839
artment	-1840
ults	-1841
▁pedestri	-1842
▁cluttered	-1843
▁get	-1844
▁couches	-1845
ET	-1846
tom	-1847
▁highway	-1848
struction	-1849
ES	-1850
▁overl	-1851
itary	-1852
ium	-1853
kets	-1854
▁cooked	-1855
▁hotdog	-1856
ded	-1857
▁Tra	-1858
▁blender	-1859
▁ant	-1860
▁fun	-1861
▁boarding	-1862
▁wedding	-1863
▁Clo	-1864
▁lone	-1865
▁clocks	-1866
▁pepper	-1867
▁mach	-1868
▁controllers	-1869
▁say	-1870
▁cro	-1871
▁ear	-1872
icing	-1873
▁drives	-1874
▁hillside	-1875
OT	-1876
made	-1877
liner	-1878
▁kick	-1879
▁gather	-1880
▁ice	-1881
▁ent	-1882
iler	-1883
pping	-1884
▁ham	-1885
▁har	-1886
oni	-1887
read	-1888
▁ter	-1889
▁doors	-1890
▁restroom	-1891
▁ret	-1892
▁rocky	-1893
▁jumps	-1894
▁ledge	-1895
▁eyes	-1896
▁signal	-1897
ddle	-1898
▁ceiling	-1899
▁lad	-1900
▁wooded	-1901
▁fashion	-1902
▁desktop	-1903
co	-1904
▁prod	-1905
▁onions	-1906
▁lawn	-1907
▁appro	-1908
▁facing	-1909
▁does	-1910
▁gr	-1911
▁flock	-1912
▁mus	-1913
fore	-1914
ng	-1915
▁eats	-1916
OW	-1917
ou	-1918
▁fall	-1919
▁stainless	-1920
ned	-1921
▁acc	-1922
ddler	-1923
▁Asian	-1924
nic	-1925
▁shelves	-1926
▁pointing	-1927
▁fram	-1928
▁stairs	-1929
▁skies	-1930
ared	-1931
▁fish	-1932
▁race	-1933
▁things	-1934
▁drawn	-1935
▁desert	-1936
▁Gi	-1937
sting	-1938
ggs	-1939
OR	-1940
br	-1941
▁before	-1942
ious	-1943
uter	-1944
mer	-1945
irc	-1946
▁cups	-1947
▁event	-1948
ears	-1949
▁includ	-1950
▁ut	-1951
▁ext	-1952
▁clouds	-1953
▁prop	-1954
▁cr	-1955
▁Christmas	-1956
▁glove	-1957
iff	-1958
set	-1959
ung	-1960
range	-1961
▁hold	-1962
▁make	-1963
ier	-1964
DING	-1965
▁J	-1966
▁sea	-1967
▁card	-1968
ON	-1969
eds	-1970
arrow	-1971
▁steps	-1972
▁outfit	-1973
▁coat	-1974
▁doll	-1975
av	-1976
cted	-1977
icks	-1978
▁gate	-1979
▁free	-1980
▁says	-1981
▁Zebra	-1982
▁toddler	-1983
▁assortment	-1984
IR	-1985
▁cla	-1986
▁roof	-1987
ative	-1988
▁neat	-1989
▁compet	-1990
▁atte	-1991
▁vegg	-1992
▁military	-1993
cture	-1994
▁cost	-1995
▁steep	-1996
▁rackets	-1997
▁arranged	-1998
▁eggs	-1999
ations	-2000
rushes	-2001
▁Men	-2002
▁arms	-2003
▁In	-2004
▁inter	-2005
▁advert	-2006
ns	-2007
pers	-2008
▁disc	-2009
▁mod	-2010
▁costum	-2011
▁snowboarding	-2012
▁chop	-2013
▁pond	-2014
▁wheel	-2015
▁fig	-2016
▁monitors	-2017
go	-2018
▁cloth	-2019
▁floors	-2020
ia	-2021
▁circ	-2022
aches	-2023
phones	-2024
xing	-2025
▁Gira	-2026
bs	-2027
▁type	-2028
▁party	-2029
▁landing	-2030
uc	-2031
▁french	-2032
▁trailer	-2033
cakes	-2034
▁graze	-2035
▁bottom	-2036
▁picnic	-2037
AC	-2038
ring	-2039
▁broken	-2040
ork	-2041
ired	-2042
▁overlooking	-2043
key	-2044
▁lunch	-2045
▁cage	-2046
▁lett	-2047
az	-2048
▁tied	-2049
▁construction	-2050
▁kneeling	-2051
▁boarder	-2052
▁White	-2053
▁dep	-2054
ony	-2055
▁ju	-2056
▁mini	-2057
▁must	-2058
pet	-2059
▁nap	-2060
▁MAN	-2061
▁mix	-2062
▁colors	-2063
▁narrow	-2064
ancy	-2065
▁trans	-2066
▁reads	-2067
▁steam	-2068
▁closed	-2069
▁hous	-2070
▁wide	-2071
▁fight	-2072
▁adults	-2073
▁skating	-2074
▁electric	-2075
▁rider	-2076
▁machine	-2077
▁net	-2078
▁sides	-2079
▁cap	-2080
▁indo	-2081
▁port	-2082
▁mag	-2083
▁opp	-2084
ially	-2085
▁Vari	-2086
▁stru	-2087
▁bever	-2088
ctor	-2089
▁pots	-2090
▁stra	-2091
so	-2092
▁Bas	-2093
▁himself	-2094
▁overhead	-2095
IC	-2096
na	-2097
▁sale	-2098
uching	-2099
▁sweat	-2100
▁tw	-2101
▁ket	-2102
▁suits	-2103
adow	-2104
urf	-2105
▁Cat	-2106
▁cakes	-2107
AY	-2108
▁plain	-2109
▁walkway	-2110
▁She	-2111
▁leather	-2112
▁PL	-2113
▁messy	-2114
▁appears	-2115
▁i	-2116
▁chef	-2117
▁pasta	-2118
▁Five	-2119
▁chain	-2120
▁carpet	-2121
▁pract	-2122
▁features	-2123
▁foreground	-2124
▁grill	-2125
rink	-2126
▁THAT	-2127
▁rela	-2128
▁ties	-2129
▁orn	-2130
▁bite	-2131
▁smart	-2132
▁assorted	-2133
ican	-2134
▁fancy	-2135
▁shade	-2136
▁veggies	-2137
▁je	-2138
▁pants	-2139
▁sunset	-2140
▁stret	-2141
▁transit	-2142
ushroom	-2143
▁towels	-2144
▁gl	-2145
▁mug	-2146
▁friends	-2147
urger	-2148
▁good	-2149
▁pier	-2150
▁block	-2151
▁bik	-2152
ooter	-2153
▁loaded	-2154
ators	-2155
▁carrot	-2156
▁Red	-2157
▁toilets	-2158
▁ship	-2159
▁still	-2160
▁partially	-2161
▁held	-2162
▁shoul	-2163
▁urban	-2164
▁photos	-2165
iers	-2166
▁sport	-2167
▁device	-2168
▁beard	-2169
OU	-2170
ives	-2171
▁Baseball	-2172
▁clothing	-2173
▁mushroom	-2174
▁sill	-2175
▁refle	-2176
▁position	-2177
▁pepperoni	-2178
▁mis	-2179
▁enter	-2180
▁scooter	-2181
▁2	-2182
▁beneath	-2183
▁pastries	-2184
▁fashioned	-2185
▁cas	-2186
▁drive	-2187
▁action	-2188
▁hole	-2189
▁Various	-2190
ucks	-2191
▁lies	-2192
▁leash	-2193
rop	-2194
ED	-2195
laz	-2196
▁toys	-2197
▁kinds	-2198
▁wrapped	-2199
house	-2200
▁gets	-2201
▁Ad	-2202
▁vis	-2203
▁racing	-2204
ef	-2205
▁palm	-2206
▁Close	-2207
▁makes	-2208
▁structure	-2209
imb	-2210
▁chips	-2211
▁contains	-2212
ib	-2213
▁happ	-2214
▁railing	-2215
ock	-2216
▁paw	-2217
▁rust	-2218
▁giving	-2219
▁saus	-2220
▁pastry	-2221
▁harbor	-2222
▁tomato	-2223
me	-2224
▁sprink	-2225
▁winter	-2226
cket	-2227
▁toas	-2228
▁Old	-2229
▁mud	-2230
▁pee	-2231
mon	-2232
▁what	-2233
▁houses	-2234
▁feed	-2235
▁wets	-2236
▁apartment	-2237
▁petting	-2238
▁supp	-2239
ighting	-2240
▁doorway	-2241
▁wetsuit	-2242
▁bull	-2243
▁smoke	-2244
▁lettuce	-2245
▁includes	-2246
▁sy	-2247
ible	-2248
▁fighter	-2249
▁rests	-2250
da	-2251
ike	-2252
agull	-2253
▁class	-2254
▁used	-2255
▁garage	-2256
▁island	-2257
ird	-2258
cting	-2259
▁teen	-2260
..	-2261
▁model	-2262
▁sheet	-2263
ught	-2264
▁use	-2265
eller	-2266
▁sort	-2267
▁lid	-2268
itten	-2269
▁comf	-2270
olored	-2271
▁peppers	-2272
▁leading	-2273
yard	-2274
▁baked	-2275
be	-2276
▁foll	-2277
▁spot	-2278
▁antique	-2279
▁fur	-2280
▁mound	-2281
▁opened	-2282
▁decorative	-2283
▁Pl	-2284
▁stun	-2285
▁vanity	-2286
act	-2287
KING	-2288
acon	-2289
▁streets	-2290
▁self	-2291
ray	-2292
▁blond	-2293
▁Air	-2294
▁leaf	-2295
ost	-2296
lage	-2297
idential	-2298
▁med	-2299
▁dra	-2300
▁siz	-2301
▁waits	-2302
▁containers	-2303
▁lift	-2304
▁return	-2305
▁prepared	-2306
▁beans	-2307
▁rural	-2308
▁upside	-2309
ps	-2310
▁utens	-2311
▁propeller	-2312
ulpt	-2313
▁candle	-2314
▁papers	-2315
▁commuter	-2316
OO	-2317
▁Bl	-2318
▁Child	-2319
▁turned	-2320
▁writing	-2321
gon	-2322
▁nood	-2323
▁shopping	-2324
▁ru	-2325
▁mit	-2326
ering	-2327
▁cele	-2328
▁hats	-2329
▁bacon	-2330
▁produce	-2331
ige	-2332
scap	-2333
▁pans	-2334
▁pave	-2335
▁heads	-2336
▁blurry	-2337
▁barn	-2338
▁hood	-2339
▁nose	-2340
▁ripe	-2341
▁sheets	-2342
▁alongside	-2343
ield	-2344
ining	-2345
▁smal	-2346
unding	-2347
▁pavement	-2348
hel	-2349
▁sculpt	-2350
▁soda	-2351
yclist	-2352
▁juice	-2353
▁paddle	-2354
▁frosting	-2355
▁Ele	-2356
▁strawber	-2357
▁five	-2358
▁meters	-2359
bage	-2360
▁cond	-2361
▁snowboards	-2362
▁tur	-2363
▁bush	-2364
▁patio	-2365
▁flight	-2366
▁pr	-2367
▁log	-2368
erial	-2369
▁stream	-2370
▁lamb	-2371
▁groom	-2372
erly	-2373
▁remotes	-2374
▁touching	-2375
▁laid	-2376
▁smaller	-2377
▁branches	-2378
▁TO	-2379
▁tea	-2380
▁milk	-2381
▁directions	-2382
aper	-2383
ital	-2384
▁tank	-2385
▁purse	-2386
▁sized	-2387
▁brightly	-2388
▁residential	-2389
chup	-2390
▁sep	-2391
▁tiny	-2392
▁seagull	-2393
▁egg	-2394
▁rainy	-2395
▁ketchup	-2396
▁kicking	-2397
▁PE	-2398
▁itself	-2399
cker	-2400
▁parade	-2401
▁multi	-2402
▁urinals	-2403
▁gen	-2404
▁displaying	-2405
ivid	-2406
▁term	-2407
▁built	-2408
▁costume	-2409
▁loading	-2410
▁AT	-2411
▁dresser	-2412
▁persons	-2413
kin	-2414
▁riders	-2415
▁officer	-2416
bile	-2417
▁closeup	-2418
pl	-2419
▁Cars	-2420
▁lines	-2421
▁mustard	-2422
▁cub	-2423
▁sem	-2424
▁war	-2425
▁tent	-2426
▁beige	-2427
▁flags	-2428
▁personal	-2429
ina	-2430
ature	-2431
▁terminal	-2432
▁deep	-2433
ail	-2434
lies	-2435
▁sliding	-2436
▁rear	-2437
▁platter	-2438
AB	-2439
▁Mult	-2440
▁enclosed	-2441
▁uniforms	-2442
▁utensils	-2443
▁ow	-2444
ster	-2445
▁decorations	-2446
▁pedestrians	-2447
TING	-2448
▁mushrooms	-2449
▁Boy	-2450
▁approaching	-2451
▁noodles	-2452
▁sailing	-2453
ices	-2454
ness	-2455
▁leg	-2456
allow	-2457
▁goes	-2458
▁power	-2459
▁throws	-2460
▁sausage	-2461
cra	-2462
▁waters	-2463
scape	-2464
▁uses	-2465
▁leans	-2466
ALL	-2467
▁rais	-2468
▁sweater	-2469
ien	-2470
▁hall	-2471
▁pipe	-2472
IL	-2473
▁course	-2474
▁shoe	-2475
hill	-2476
▁pupp	-2477
▁vest	-2478
mpting	-2479
▁ducks	-2480
▁ladies	-2481
▁glaz	-2482
OPLE	-2483
▁gas	-2484
▁View	-2485
▁hangs	-2486
▁trays	-2487
▁pickup	-2488
shirt	-2489
ividual	-2490
yclists	-2491
▁butter	-2492
ushing	-2493
▁PEOPLE	-2494
IG	-2495
▁BO	-2496
▁eye	-2497
▁pulls	-2498
▁greens	-2499
▁posted	-2500
ory	-2501
▁bare	-2502
▁mitt	-2503
▁written	-2504
ior	-2505
▁deli	-2506
▁beverage	-2507
▁collection	-2508
ully	-2509
▁attempting	-2510
▁cons	-2511
▁growing	-2512
ass	-2513
▁He	-2514
▁exp	-2515
▁liqu	-2516
▁only	-2517
▁runs	-2518
▁stad	-2519
▁crosswalk	-2520
▁semi	-2521
▁freez	-2522
boat	-2523
omot	-2524
craft	-2525
▁pres	-2526
▁paint	-2527
▁Hor	-2528
▁Mot	-2529
▁eld	-2530
▁passes	-2531
▁rolling	-2532
▁stadium	-2533
case	-2534
lled	-2535
▁climb	-2536
▁Zebras	-2537
▁transp	-2538
▁indoor	-2539
▁3	-2540
ath	-2541
nel	-2542
▁ol	-2543
▁fried	-2544
▁surro	-2545
▁toast	-2546
▁surrounding	-2547
▁1	-2548
cing	-2549
▁laugh	-2550
▁neatly	-2551
▁relaxing	-2552
als	-2553
ues	-2554
ware	-2555
▁stud	-2556
▁curled	-2557
▁ornate	-2558
▁bending	-2559
▁cal	-2560
▁curtains	-2561
gan	-2562
ton	-2563
▁char	-2564
▁guit	-2565
sted	-2566
▁fake	-2567
▁rope	-2568
omotive	-2569
▁supplies	-2570
▁Girl	-2571
ishing	-2572
▁bride	-2573
ute	-2574
▁jets	-2575
▁lamps	-2576
▁missing	-2577
em	-2578
▁ab	-2579
▁micro	-2580
▁siting	-2581
▁tops	-2582
usk	-2583
▁happy	-2584
▁handle	-2585
▁patter	-2586
▁aircraft	-2587
▁TR	-2588
rance	-2589
▁duck	-2590
▁sticks	-2591
▁bunches	-2592
▁elderly	-2593
▁potted	-2594
eum	-2595
ooked	-2596
▁wires	-2597
CH	-2598
▁It	-2599
▁sim	-2600
▁Amer	-2601
▁goats	-2602
▁life	-2603
▁Gu	-2604
uffy	-2605
▁pri	-2606
▁tool	-2607
▁balls	-2608
▁frame	-2609
ctators	-2610
▁wheels	-2611
▁Looking	-2612
▁falling	-2613
▁if	-2614
▁por	-2615
▁most	-2616
▁paved	-2617
▁snack	-2618
▁performs	-2619
▁roses	-2620
▁baskets	-2621
▁individual	-2622
cake	-2623
akers	-2624
▁tail	-2625
▁without	-2626
▁telephone	-2627
oral	-2628
▁bell	-2629
▁piled	-2630
▁gentle	-2631
▁roadway	-2632
ERS	-2633
▁how	-2634
▁bookshel	-2635
avy	-2636
lish	-2637
▁capt	-2638
▁toss	-2639
▁speed	-2640
▁stool	-2641
▁wagon	-2642
ID	-2643
cked	-2644
▁dim	-2645
▁tax	-2646
osite	-2647
▁separ	-2648
▁airliner	-2649
▁locomotive	-2650
ots	-2651
▁Co	-2652
▁adj	-2653
▁packed	-2654
▁arrange	-2655
▁practicing	-2656
umer	-2657
ured	-2658
▁talks	-2659
▁tiles	-2660
fl	-2661
bed	-2662
▁jeans	-2663
▁section	-2664
og	-2665
▁TW	-2666
▁fal	-2667
▁here	-2668
▁sold	-2669
▁Motor	-2670
▁stunt	-2671
▁celebr	-2672
▁motion	-2673
▁sports	-2674
▁Multiple	-2675
▁electronics	-2676
▁Com	-2677
▁formation	-2678
dd	-2679
▁aw	-2680
redi	-2681
▁Sheep	-2682
▁guitar	-2683
▁shallow	-2684
▁cupboard	-2685
▁shoulder	-2686
▁sculpture	-2687
▁SU	-2688
▁pet	-2689
▁also	-2690
▁flip	-2691
▁remo	-2692
▁arrangement	-2693
EL	-2694
ooks	-2695
▁star	-2696
▁cycle	-2697
▁glazed	-2698
▁mirrors	-2699
▁soft	-2700
▁Elephant	-2701
▁landscape	-2702
▁shirtless	-2703
risbe	-2704
▁trol	-2705
▁flown	-2706
isement	-2707
▁selfie	-2708
ipped	-2709
▁floral	-2710
▁toothbrushes	-2711
▁tong	-2712
redients	-2713
▁garbage	-2714
▁covering	-2715
end	-2716
▁SK	-2717
aged	-2718
▁hors	-2719
▁bucket	-2720
▁museum	-2721
▁toaster	-2722
▁Children	-2723
▁Giraffes	-2724
▁opposite	-2725
line	-2726
▁Kit	-2727
▁TWO	-2728
▁pow	-2729
▁selling	-2730
bow	-2731
▁We	-2732
time	-2733
▁spread	-2734
▁freezer	-2735
ountain	-2736
▁foc	-2737
▁pine	-2738
▁sniff	-2739
▁travels	-2740
▁American	-2741
▁jetliner	-2742
▁Ben	-2743
▁exh	-2744
▁holder	-2745
▁advertisement	-2746
cts	-2747
ABLE	-2748
▁ing	-2749
cking	-2750
▁cones	-2751
▁patch	-2752
▁pitching	-2753
▁cop	-2754
asing	-2755
essor	-2756
▁hits	-2757
▁tongue	-2758
zza	-2759
ging	-2760
▁fast	-2761
▁fing	-2762
▁sprinkles	-2763
abit	-2764
▁fir	-2765
eback	-2766
▁dead	-2767
▁paras	-2768
▁Guy	-2769
▁Adult	-2770
ater	-2771
▁asleep	-2772
▁fallen	-2773
▁objects	-2774
UT	-2775
ways	-2776
▁pushing	-2777
▁horseback	-2778
GE	-2779
▁Big	-2780
▁corn	-2781
▁inst	-2782
ancing	-2783
▁icing	-2784
▁stuck	-2785
▁blankets	-2786
▁headphones	-2787
▁ke	-2788
umin	-2789
▁bank	-2790
▁images	-2791
▁hotdogs	-2792
▁competition	-2793
ACK	-2794
▁Lit	-2795
▁muff	-2796
icious	-2797
▁ingredients	-2798
ARD	-2799
▁buff	-2800
▁pictured	-2801
▁faces	-2802
▁habit	-2803
▁marble	-2804
▁visible	-2805
▁counters	-2806
▁homemade	-2807
".	-2808
ake	-2809
▁Dog	-2810
▁hum	-2811
▁newsp	-2812
▁puppy	-2813
▁skirt	-2814
▁motorb	-2815
▁pedestrian	-2816
ids	-2817
▁Pic	-2818
aming	-2819
usted	-2820
▁coll	-2821
▁fluffy	-2822
▁stoplight	-2823
▁SIT	-2824
▁Surf	-2825
▁downhill	-2826
▁checkered	-2827
▁Ro	-2828
▁mop	-2829
▁Cows	-2830
▁rolls	-2831
▁string	-2832
▁climbing	-2833
▁strawberries	-2834
▁item	-2835
▁wears	-2836
▁reaches	-2837
▁entrance	-2838
OL	-2839
pple	-2840
cycle	-2841
fully	-2842
▁frosted	-2843
▁habitat	-2844
▁featuring	-2845
ount	-2846
▁balloon	-2847
▁cupcakes	-2848
▁BE	-2849
▁da	-2850
▁STRE	-2851
▁neon	-2852
▁shirts	-2853
ATE	-2854
now	-2855
▁cer	-2856
ising	-2857
ked	-2858
▁fin	-2859
▁rep	-2860
▁tab	-2861
bbing	-2862
▁moves	-2863
▁whole	-2864
▁STREET	-2865
▁gathering	-2866
lit	-2867
ondon	-2868
▁leap	-2869
▁Little	-2870
▁pouring	-2871
oned	-2872
▁carries	-2873
rot	-2874
▁ang	-2875
▁bit	-2876
▁PLAY	-2877
▁chil	-2878
▁mixed	-2879
▁range	-2880
▁photograp	-2881
▁magn	-2882
▁rows	-2883
▁feeder	-2884
▁stickers	-2885
▁microphone	-2886
amp	-2887
ished	-2888
▁obser	-2889
▁covers	-2890
▁officers	-2891
asty	-2892
▁name	-2893
▁focus	-2894
▁organ	-2895
▁napkin	-2896
▁transport	-2897
▁To	-2898
▁furnis	-2899
▁olives	-2900
▁dump	-2901
eboard	-2902
▁SITTING	-2903
▁batting	-2904
orter	-2905
▁backs	-2906
▁shiny	-2907
▁condim	-2908
oming	-2909
▁haired	-2910
▁Picture	-2911
ders	-2912
▁exhib	-2913
▁gravel	-2914
▁slopes	-2915
▁Traffic	-2916
▁fan	-2917
▁far	-2918
▁Snow	-2919
▁loung	-2920
▁blowing	-2921
▁skateboarders	-2922
boy	-2923
▁Bus	-2924
▁aut	-2925
▁lab	-2926
▁Blue	-2927
▁wing	-2928
▁conne	-2929
▁enjoy	-2930
▁Pi	-2931
dling	-2932
▁hills	-2933
▁blonde	-2934
▁rainbow	-2935
▁basketball	-2936
uzz	-2937
▁figur	-2938
▁shadow	-2939
▁cookies	-2940
▁tun	-2941
▁cargo	-2942
▁liquid	-2943
▁opening	-2944
iled	-2945
wood	-2946
ental	-2947
right	-2948
▁checking	-2949
▁cleaning	-2950
▁fountain	-2951
▁lighting	-2952
▁jar	-2953
▁THIS	-2954
▁controls	-2955
▁bul	-2956
▁These	-2957
▁indic	-2958
▁comple	-2959
▁potato	-2960
▁laughing	-2961
▁spectators	-2962
▁Col	-2963
▁Ten	-2964
▁blow	-2965
▁shru	-2966
▁ahead	-2967
▁cardboard	-2968
▁delicious	-2969
▁snowboarders	-2970
rial	-2971
▁aud	-2972
ience	-2973
▁prin	-2974
ugging	-2975
▁exten	-2976
▁first	-2977
▁numer	-2978
▁shape	-2979
▁turning	-2980
▁desserts	-2981
UN	-2982
▁WH	-2983
▁beef	-2984
▁hamb	-2985
vy	-2986
▁even	-2987
▁thin	-2988
▁trav	-2989
▁great	-2990
▁frisbe	-2991
▁golden	-2992
ited	-2993
▁bur	-2994
▁arch	-2995
▁booth	-2996
▁someones	-2997
▁bookshelf	-2998
rit	-2999
▁On	-3000
▁you	-3001
▁foil	-3002
▁proc	-3003
▁Green	-3004
▁catches	-3005
▁condiments	-3006
py	-3007
was	-3008
▁pige	-3009
▁muddy	-3010
▁tools	-3011
▁London	-3012
▁located	-3013
▁displays	-3014
ront	-3015
▁saf	-3016
▁sug	-3017
▁clay	-3018
▁rusty	-3019
▁flooring	-3020
▁entertain	-3021
▁RE	-3022
▁plaid	-3023
▁tabby	-3024
▁exhibit	-3025
▁fishing	-3026
▁herself	-3027
▁trolley	-3028
▁newspaper	-3029
▁countertop	-3030
▁travelling	-3031
stri	-3032
▁sad	-3033
ently	-3034
▁goat	-3035
▁tire	-3036
▁seats	-3037
iet	-3038
amic	-3039
▁cust	-3040
erries	-3041
▁carts	-3042
▁pickle	-3043
▁workers	-3044
▁miniature	-3045
▁lar	-3046
▁Stop	-3047
▁cran	-3048
▁alley	-3049
▁depic	-3050
ustrial	-3051
▁Giraffe	-3052
▁forward	-3053
ague	-3054
olded	-3055
▁spin	-3056
▁Brown	-3057
▁bou	-3058
▁pin	-3059
ither	-3060
ockey	-3061
▁bent	-3062
▁cere	-3063
spital	-3064
▁cowboy	-3065
▁mobile	-3066
▁rusted	-3067
▁unmade	-3068
anta	-3069
▁bunk	-3070
thy	-3071
▁bak	-3072
▁balc	-3073
▁Pizza	-3074
▁hallway	-3075
▁sus	-3076
▁TABLE	-3077
▁attire	-3078
▁either	-3079
▁gloves	-3080
▁brushes	-3081
▁alm	-3082
▁den	-3083
▁chees	-3084
▁thrown	-3085
washer	-3086
▁Tennis	-3087
▁meadow	-3088
▁comforter	-3089
URE	-3090
ried	-3091
▁sec	-3092
brary	-3093
eting	-3094
▁Skat	-3095
▁syst	-3096
essories	-3097
▁grilled	-3098
▁industrial	-3099
men	-3100
van	-3101
▁Sh	-3102
▁ic	-3103
▁rad	-3104
ables	-3105
▁size	-3106
▁posed	-3107
▁spray	-3108
▁helping	-3109
▁sharing	-3110
look	-3111
▁Food	-3112
▁cafe	-3113
▁calm	-3114
▁stir	-3115
▁crust	-3116
▁stage	-3117
icolored	-3118
▁steeple	-3119
▁dishwasher	-3120
▁accessories	-3121
erry	-3122
▁stares	-3123
▁following	-3124
here	-3125
▁ill	-3126
▁nic	-3127
▁seems	-3128
▁biting	-3129
▁Ban	-3130
▁lif	-3131
decker	-3132
▁magaz	-3133
▁wings	-3134
attered	-3135
▁driver	-3136
▁sleeps	-3137
tress	-3138
▁cliff	-3139
▁neigh	-3140
▁ceramic	-3141
▁hospital	-3142
arf	-3143
▁odd	-3144
▁STAN	-3145
▁chest	-3146
▁words	-3147
▁interior	-3148
▁countryside	-3149
ITE	-3150
▁Un	-3151
town	-3152
▁own	-3153
inese	-3154
▁calf	-3155
▁chili	-3156
▁custom	-3157
FF	-3158
mpt	-3159
▁more	-3160
▁almost	-3161
▁teenag	-3162
▁watering	-3163
▁Skateboard	-3164
hood	-3165
▁lane	-3166
▁steak	-3167
▁grapes	-3168
▁series	-3169
▁chasing	-3170
▁picking	-3171
od	-3172
▁six	-3173
▁groc	-3174
▁taxi	-3175
▁baking	-3176
▁BL	-3177
▁Fl	-3178
▁IT	-3179
▁bagg	-3180
▁paws	-3181
▁Train	-3182
▁tasty	-3183
▁burger	-3184
▁heading	-3185
▁hugging	-3186
▁neighbor	-3187
work	-3188
▁band	-3189
ushion	-3190
▁balcony	-3191
▁designed	-3192
▁WOM	-3193
▁ado	-3194
▁jumb	-3195
▁mans	-3196
▁apron	-3197
▁system	-3198
▁Motorcycle	-3199
."	-3200
ew	-3201
▁BU	-3202
▁Be	-3203
▁CH	-3204
▁gaz	-3205
gress	-3206
▁mostly	-3207
▁amongst	-3208
▁library	-3209
car	-3210
ker	-3211
▁sle	-3212
▁coach	-3213
▁heart	-3214
▁horns	-3215
▁teams	-3216
▁Horses	-3217
▁jockey	-3218
▁marina	-3219
▁suspen	-3220
▁cushion	-3221
ral	-3222
▁jo	-3223
▁nat	-3224
▁canop	-3225
▁nicely	-3226
▁bouquet	-3227
▁mattress	-3228
▁multicolored	-3229
ux	-3230
bble	-3231
gged	-3232
allic	-3233
ctive	-3234
stand	-3235
▁aerial	-3236
▁matching	-3237
▁gentleman	-3238
AD	-3239
AM	-3240
zen	-3241
▁dig	-3242
ility	-3243
ument	-3244
▁cuts	-3245
▁iron	-3246
▁Banan	-3247
▁larger	-3248
▁PLAYING	-3249
▁pancakes	-3250
▁Bath	-3251
isting	-3252
▁Yellow	-3253
▁sniffing	-3254
▁straight	-3255
ano	-3256
▁av	-3257
▁tas	-3258
▁vol	-3259
▁comb	-3260
▁arrow	-3261
▁funny	-3262
andoned	-3263
▁tunnel	-3264
▁leaving	-3265
▁DO	-3266
▁ribb	-3267
▁dryer	-3268
▁collar	-3269
▁neighborhood	-3270
ere	-3271
rage	-3272
▁PIC	-3273
▁cig	-3274
▁mask	-3275
▁read	-3276
▁owner	-3277
▁sugar	-3278
▁trunks	-3279
ord	-3280
▁bill	-3281
▁convers	-3282
▁prepare	-3283
▁Bathroom	-3284
TURE	-3285
ette	-3286
owers	-3287
▁fixt	-3288
▁hose	-3289
▁every	-3290
▁Closeup	-3291
▁metallic	-3292
▁Elephants	-3293
ASS	-3294
▁bra	-3295
▁jumbo	-3296
▁lemon	-3297
▁buffet	-3298
▁onlook	-3299
▁typing	-3300
▁baggage	-3301
▁hamburger	-3302
▁advertising	-3303
AIN	-3304
IDE	-3305
ters	-3306
▁beg	-3307
▁cru	-3308
quets	-3309
▁story	-3310
▁attempt	-3311
▁chewing	-3312
▁railway	-3313
▁LOT	-3314
▁tin	-3315
▁dusk	-3316
▁tries	-3317
▁works	-3318
▁statues	-3319
olf	-3320
sel	-3321
use	-3322
▁sets	-3323
▁bakery	-3324
▁natural	-3325
▁tractor	-3326
▁washing	-3327
▁driveway	-3328
▁abandoned	-3329
hers	-3330
▁Car	-3331
ersey	-3332
▁move	-3333
▁warm	-3334
▁thick	-3335
▁poster	-3336
▁resort	-3337
▁motorbike	-3338
NT	-3339
▁Ve	-3340
ption	-3341
▁cool	-3342
▁twin	-3343
▁winds	-3344
▁freshly	-3345
▁weather	-3346
▁cold	-3347
▁cases	-3348
▁Skiers	-3349
▁jersey	-3350
▁audience	-3351
aks	-3352
▁lim	-3353
▁helm	-3354
▁boots	-3355
▁heavy	-3356
▁rails	-3357
▁strol	-3358
▁foreign	-3359
▁shining	-3360
▁circular	-3361
▁entertainment	-3362
▁bars	-3363
▁hung	-3364
▁candy	-3365
▁dimly	-3366
▁prote	-3367
▁formal	-3368
▁devices	-3369
▁connected	-3370
aret	-3371
▁para	-3372
▁pony	-3373
▁rose	-3374
▁WOMAN	-3375
▁progress	-3376
▁organized	-3377
▁lighthouse	-3378
▁PH	-3379
illa	-3380
ival	-3381
▁ris	-3382
front	-3383
rable	-3384
▁vend	-3385
ipping	-3386
▁grand	-3387
▁folded	-3388
▁framed	-3389
▁cigaret	-3390
▁downtown	-3391
▁cupboards	-3392
ightly	-3393
▁helmets	-3394
▁magnets	-3395
▁propped	-3396
irds	-3397
▁Six	-3398
▁mass	-3399
▁dispen	-3400
▁tor	-3401
▁hiding	-3402
▁league	-3403
▁turkey	-3404
▁pop	-3405
▁serv	-3406
▁busses	-3407
▁finger	-3408
▁cupcake	-3409
▁tossing	-3410
▁racquets	-3411
dered	-3412
▁obst	-3413
coming	-3414
▁Women	-3415
▁level	-3416
▁tablet	-3417
▁worker	-3418
▁PICTURE	-3419
▁nintendo	-3420
oe	-3421
▁Bro	-3422
alley	-3423
▁main	-3424
▁ring	-3425
▁upon	-3426
▁quiet	-3427
▁backyard	-3428
▁lounging	-3429
▁sailboat	-3430
inds	-3431
▁canopy	-3432
▁obstac	-3433
▁STANDING	-3434
▁reflected	-3435
CK	-3436
chair	-3437
▁porch	-3438
▁father	-3439
▁parrot	-3440
▁raised	-3441
▁adorable	-3442
▁contents	-3443
▁sunlight	-3444
ls	-3445
zy	-3446
▁su	-3447
ades	-3448
▁dot	-3449
▁fab	-3450
▁belt	-3451
▁desc	-3452
▁unus	-3453
▁piano	-3454
▁chopped	-3455
▁illumin	-3456
ggy	-3457
med	-3458
vely	-3459
▁unc	-3460
▁ears	-3461
▁Color	-3462
▁males	-3463
▁scarf	-3464
▁castle	-3465
▁wilder	-3466
▁bearded	-3467
▁besides	-3468
▁Ass	-3469
▁BAT	-3470
▁sha	-3471
▁son	-3472
vated	-3473
▁adjus	-3474
▁flood	-3475
▁point	-3476
▁toothp	-3477
▁evening	-3478
▁licking	-3479
angu	-3480
boats	-3481
istic	-3482
▁fans	-3483
▁gran	-3484
▁pump	-3485
▁skiis	-3486
▁storage	-3487
▁motorcyclist	-3488
eled	-3489
▁Pol	-3490
▁shut	-3491
▁WHITE	-3492
▁barrel	-3493
▁grazes	-3494
▁hardwood	-3495
▁seagulls	-3496
▁silverware	-3497
▁NE	-3498
▁SH	-3499
ider	-3500
▁Hot	-3501
▁saying	-3502
▁daytime	-3503
▁grocery	-3504
▁scattered	-3505
▁wilderness	-3506
gy	-3507
▁4	-3508
▁golf	-3509
▁lear	-3510
▁oper	-3511
▁furry	-3512
▁guard	-3513
▁langu	-3514
▁order	-3515
colored	-3516
▁Assort	-3517
▁Chinese	-3518
▁crosses	-3519
▁separate	-3520
▁onlookers	-3521
▁WI	-3522
▁PAR	-3523
▁bund	-3524
▁lambs	-3525
▁squat	-3526
▁monkey	-3527
▁present	-3528
▁spinach	-3529
▁bay	-3530
ending	-3531
▁fabric	-3532
▁shaking	-3533
▁balancing	-3534
my	-3535
▁bats	-3536
▁word	-3537
▁Birds	-3538
▁produ	-3539
▁stretching	-3540
tru	-3541
▁RO	-3542
mons	-3543
▁ple	-3544
▁sla	-3545
▁strip	-3546
▁cookie	-3547
ka	-3548
tor	-3549
outh	-3550
▁gogg	-3551
▁logs	-3552
▁bikers	-3553
▁bikini	-3554
▁collage	-3555
▁peeking	-3556
▁smoking	-3557
SE	-3558
arp	-3559
aker	-3560
ests	-3561
▁mom	-3562
ounge	-3563
ungle	-3564
▁fauc	-3565
▁sizes	-3566
▁amount	-3567
▁comfort	-3568
▁football	-3569
ma	-3570
▁awa	-3571
▁dust	-3572
▁balan	-3573
▁savan	-3574
▁thumb	-3575
▁intere	-3576
▁jungle	-3577
▁played	-3578
▁drawers	-3579
▁Colorful	-3580
▁Ind	-3581
▁swe	-3582
▁tag	-3583
althy	-3584
anger	-3585
▁talk	-3586
▁asian	-3587
▁leafy	-3588
▁clutter	-3589
▁goggles	-3590
▁suspended	-3591
LO	-3592
plane	-3593
uffed	-3594
selves	-3595
▁moped	-3596
▁music	-3597
▁circle	-3598
▁friend	-3599
▁lemons	-3600
▁volley	-3601
▁screens	-3602
▁warning	-3603
▁rec	-3604
uddle	-3605
where	-3606
▁safety	-3607
▁unique	-3608
▁delivery	-3609
unk	-3610
▁el	-3611
▁ge	-3612
▁hi	-3613
ided	-3614
▁City	-3615
▁rece	-3616
▁ladder	-3617
▁parach	-3618
▁Kitchen	-3619
▁indoors	-3620
▁magazine	-3621
▁cigarette	-3622
▁decoration	-3623
▁themselves	-3624
pper	-3625
▁WII	-3626
▁mel	-3627
▁ador	-3628
▁pean	-3629
illing	-3630
▁terra	-3631
▁simple	-3632
ole	-3633
anda	-3634
▁Fre	-3635
▁sne	-3636
ooters	-3637
▁chefs	-3638
▁fixing	-3639
▁ribbon	-3640
rat	-3641
ret	-3642
rib	-3643
lers	-3644
iving	-3645
▁fair	-3646
▁ware	-3647
▁peeled	-3648
▁pickles	-3649
▁savanna	-3650
▁fighting	-3651
▁frisbees	-3652
aste	-3653
dled	-3654
▁nuts	-3655
▁Skateboarder	-3656
ASE	-3657
▁GR	-3658
▁wo	-3659
▁tus	-3660
▁plan	-3661
▁than	-3662
▁surfs	-3663
▁figure	-3664
▁muffin	-3665
▁really	-3666
▁freight	-3667
▁courtyard	-3668
its	-3669
▁Sc	-3670
▁skin	-3671
reline	-3672
▁crane	-3673
▁complete	-3674
▁towering	-3675
▁cellphones	-3676
ilt	-3677
owed	-3678
▁cher	-3679
▁lean	-3680
▁storm	-3681
▁lounge	-3682
▁classroom	-3683
▁shoreline	-3684
KE	-3685
att	-3686
hol	-3687
uri	-3688
▁Di	-3689
▁Pla	-3690
▁bin	-3691
▁fest	-3692
▁goal	-3693
▁link	-3694
▁load	-3695
▁need	-3696
▁wash	-3697
orting	-3698
▁cereal	-3699
▁closet	-3700
▁balloons	-3701
▁furnished	-3702
▁consisting	-3703
▁photographs	-3704
▁De	-3705
▁Eng	-3706
▁HOL	-3707
▁barri	-3708
▁stops	-3709
▁sticker	-3710
▁Broccoli	-3711
▁scooters	-3712
▁vegetation	-3713
ze	-3714
▁COU	-3715
▁trim	-3716
▁Boats	-3717
▁obstacle	-3718
af	-3719
ha	-3720
pass	-3721
▁WAT	-3722
▁buns	-3723
▁cone	-3724
▁soap	-3725
▁canoe	-3726
▁pairs	-3727
▁shops	-3728
▁tusks	-3729
▁points	-3730
▁Bananas	-3731
▁process	-3732
▁beverages	-3733
▁inf	-3734
▁wear	-3735
▁Apple	-3736
▁comes	-3737
▁foggy	-3738
▁kitty	-3739
covered	-3740
gu	-3741
▁DOG	-3742
▁project	-3743
▁slightly	-3744
LL	-3745
hou	-3746
rimp	-3747
▁str	-3748
wards	-3749
▁rustic	-3750
▁designs	-3751
▁softball	-3752
gie	-3753
xes	-3754
▁Par	-3755
▁arri	-3756
▁grin	-3757
▁haul	-3758
▁puts	-3759
▁arena	-3760
riental	-3761
▁headed	-3762
▁healthy	-3763
▁speakers	-3764
ti	-3765
ws	-3766
ANT	-3767
ifl	-3768
▁Ph	-3769
oney	-3770
▁ath	-3771
▁lob	-3772
▁reg	-3773
▁burn	-3774
▁BOARD	-3775
▁bedsp	-3776
▁berries	-3777
▁meeting	-3778
▁skyline	-3779
▁pedestal	-3780
▁positioned	-3781
za	-3782
tie	-3783
▁SM	-3784
▁fat	-3785
ERSON	-3786
▁care	-3787
▁knit	-3788
▁spac	-3789
raying	-3790
▁noteb	-3791
▁these	-3792
▁wading	-3793
▁bathing	-3794
▁slicing	-3795
▁fixtures	-3796
▁dispenser	-3797
▁observing	-3798
▁approaches	-3799
▁toothpaste	-3800
ta	-3801
illage	-3802
▁conve	-3803
iflower	-3804
▁PERSON	-3805
▁strange	-3806
▁paddling	-3807
AND	-3808
uro	-3809
ROOM	-3810
▁act	-3811
▁tho	-3812
▁too	-3813
▁beak	-3814
▁bugg	-3815
▁mall	-3816
▁Santa	-3817
▁peace	-3818
▁valley	-3819
▁crossed	-3820
▁catchers	-3821
▁grabbing	-3822
▁material	-3823
▁sideways	-3824
▁waterway	-3825
▁fed	-3826
▁Kids	-3827
▁Teddy	-3828
▁village	-3829
uliflower	-3830
IGH	-3831
ama	-3832
ebo	-3833
ope	-3834
▁Pair	-3835
▁cans	-3836
▁wand	-3837
▁reach	-3838
▁faucet	-3839
▁shrimp	-3840
▁leaping	-3841
▁attempts	-3842
▁reflecting	-3843
▁FR	-3844
▁Te	-3845
icle	-3846
oose	-3847
shing	-3848
▁spla	-3849
▁Fresh	-3850
▁caught	-3851
▁pigeons	-3852
▁illuminated	-3853
▁lis	-3854
▁pens	-3855
ALKING	-3856
▁trough	-3857
▁HOLDING	-3858
▁Different	-3859
icop	-3860
▁Can	-3861
▁HIS	-3862
ucumb	-3863
▁That	-3864
▁alco	-3865
▁desks	-3866
▁direct	-3867
▁snacks	-3868
▁numbers	-3869
▁Snowboard	-3870
OOD	-3871
alt	-3872
▁Af	-3873
gant	-3874
▁fol	-3875
rence	-3876
▁BATH	-3877
▁keep	-3878
unches	-3879
▁Plate	-3880
▁goods	-3881
▁tight	-3882
▁repair	-3883
▁vendor	-3884
▁waving	-3885
▁bedspread	-3886
ift	-3887
ined	-3888
▁any	-3889
▁det	-3890
▁exc	-3891
▁wre	-3892
▁confe	-3893
▁leads	-3894
▁cucumb	-3895
▁helicop	-3896
▁service	-3897
▁patterned	-3898
▁conversation	-3899
toon	-3900
▁GIR	-3901
▁kay	-3902
urope	-3903
white	-3904
▁exam	-3905
▁raft	-3906
▁forks	-3907
▁layer	-3908
▁button	-3909
▁knives	-3910
▁granite	-3911
▁herding	-3912
▁kis	-3913
urious	-3914
▁fully	-3915
▁Couple	-3916
▁flooded	-3917
▁,	-3918
OTO	-3919
▁Comm	-3920
▁clus	-3921
▁slee	-3922
▁tags	-3923
▁trop	-3924
▁panda	-3925
▁plaza	-3926
▁cobble	-3927
▁drawing	-3928
▁cauliflower	-3929
ACH	-3930
ula	-3931
▁Mo	-3932
▁had	-3933
▁Sign	-3934
▁much	-3935
▁slow	-3936
▁French	-3937
▁second	-3938
▁terrain	-3939
ific	-3940
rots	-3941
▁ins	-3942
amond	-3943
icker	-3944
▁dried	-3945
▁cheesy	-3946
▁lighted	-3947
▁teenager	-3948
▁nightstand	-3949
VER	-3950
YING	-3951
cast	-3952
ctory	-3953
▁deer	-3954
▁PHOTO	-3955
▁basin	-3956
▁heard	-3957
▁split	-3958
▁boogie	-3959
▁peanut	-3960
▁within	-3961
▁married	-3962
▁strapped	-3963
▁students	-3964
▁Ar	-3965
▁LOO	-3966
▁Pro	-3967
▁maj	-3968
▁mov	-3969
▁pus	-3970
cloth	-3971
ities	-3972
labor	-3973
dition	-3974
ination	-3975
▁convey	-3976
▁spoons	-3977
▁elegant	-3978
▁tasting	-3979
▁greenery	-3980
▁tropical	-3981
▁helicopter	-3982
kins	-3983
port	-3984
▁fry	-3985
▁owl	-3986
▁unf	-3987
▁Male	-3988
▁seas	-3989
ughter	-3990
▁conso	-3991
▁quilt	-3992
angular	-3993
▁classic	-3994
▁diamond	-3995
▁pattern	-3996
▁roaming	-3997
▁upright	-3998
uld	-3999
▁es	-4000
▁bald	-4001
▁recor	-4002
▁listen	-4003
▁massive	-4004
▁costumes	-4005
▁overpass	-4006
▁spraying	-4007
▁tablecloth	-4008
val	-4009
▁FI	-4010
▁SN	-4011
acks	-4012
▁Don	-4013
▁New	-4014
▁bad	-4015
▁hip	-4016
▁min	-4017
gging	-4018
▁keys	-4019
▁colle	-4020
▁Surfer	-4021
▁celebrating	-4022
▁interesting	-4023
fts	-4024
dles	-4025
▁bor	-4026
▁turns	-4027
▁drying	-4028
▁skater	-4029
▁unusual	-4030
▁5	-4031
ERE	-4032
IGN	-4033
▁hal	-4034
▁poss	-4035
▁site	-4036
▁atten	-4037
▁coast	-4038
▁gives	-4039
▁garnis	-4040
▁portra	-4041
▁stance	-4042
▁Stuffed	-4043
▁doubles	-4044
▁freeway	-4045
▁handing	-4046
▁wrapper	-4047
▁cellular	-4048
▁stopping	-4049
▁transportation	-4050
▁US	-4051
apan	-4052
drop	-4053
▁may	-4054
oored	-4055
pples	-4056
▁peel	-4057
▁recl	-4058
▁canal	-4059
▁ostri	-4060
▁polka	-4061
▁figurine	-4062
▁language	-4063
▁sailboats	-4064
▁motorcyclists	-4065
ode	-4066
▁div	-4067
▁rol	-4068
▁knee	-4069
▁will	-4070
▁buggy	-4071
▁tents	-4072
▁airbor	-4073
▁drawer	-4074
▁factory	-4075
▁windsurf	-4076
▁adjusting	-4077
▁Long	-4078
▁come	-4079
▁prov	-4080
▁text	-4081
▁unlo	-4082
▁bagel	-4083
▁print	-4084
▁hooked	-4085
▁console	-4086
▁grinding	-4087
▁conference	-4088
AP	-4089
ILE	-4090
▁Le	-4091
ably	-4092
hand	-4093
▁BUS	-4094
▁crib	-4095
▁tape	-4096
sticks	-4097
▁curve	-4098
▁ornam	-4099
▁posts	-4100
▁thing	-4101
▁Europe	-4102
▁compan	-4103
▁themed	-4104
▁cartoon	-4105
▁winding	-4106
▁indicating	-4107
no	-4108
bag	-4109
▁La	-4110
uble	-4111
▁sup	-4112
▁Pass	-4113
▁rect	-4114
▁tiss	-4115
▁depot	-4116
▁weird	-4117
▁silhou	-4118
▁backdrop	-4119
▁learning	-4120
▁notebook	-4121
▁photographer	-4122
idy	-4123
ora	-4124
rome	-4125
▁CAT	-4126
▁wake	-4127
▁Afric	-4128
▁autom	-4129
▁human	-4130
▁ident	-4131
▁pinea	-4132
▁hangar	-4133
▁cleaned	-4134
▁BATHROOM	-4135
▁boarders	-4136
▁elevated	-4137
▁extended	-4138
ky	-4139
ico	-4140
ised	-4141
▁Her	-4142
▁eag	-4143
▁map	-4144
▁Airl	-4145
▁blur	-4146
▁cree	-4147
▁brief	-4148
▁cloud	-4149
▁mashed	-4150
▁shades	-4151
▁alcohol	-4152
▁include	-4153
▁speaking	-4154
▁compartment	-4155
vi	-4156
▁No	-4157
ooth	-4158
▁GRO	-4159
▁dec	-4160
▁pug	-4161
oping	-4162
▁SNOW	-4163
ailing	-4164
▁Photo	-4165
▁oppon	-4166
▁Passen	-4167
▁Plates	-4168
▁kissing	-4169
▁utility	-4170
▁airborne	-4171
▁products	-4172
▁parachute	-4173
amb	-4174
den	-4175
▁TOP	-4176
▁now	-4177
▁Lots	-4178
▁butt	-4179
vering	-4180
▁Fruit	-4181
▁float	-4182
▁rowing	-4183
ditional	-4184
▁WALKING	-4185
▁pathway	-4186
▁monument	-4187
▁numerous	-4188
▁windowsill	-4189
▁individuals	-4190
INK	-4191
ened	-4192
suit	-4193
▁flav	-4194
▁histor	-4195
▁wicker	-4196
▁signals	-4197
▁headboard	-4198
▁squatting	-4199
EE	-4200
UP	-4201
ops	-4202
▁Fe	-4203
▁TEN	-4204
▁bis	-4205
▁blu	-4206
ATING	-4207
stone	-4208
ugged	-4209
▁amid	-4210
▁dest	-4211
▁carry	-4212
▁instr	-4213
▁naked	-4214
▁snugg	-4215
▁babies	-4216
▁circus	-4217
▁frying	-4218
▁parent	-4219
▁drivers	-4220
▁jackets	-4221
▁daughter	-4222
▁overcast	-4223
▁stroller	-4224
UND	-4225
ixt	-4226
pan	-4227
▁ba	-4228
hedr	-4229
▁waff	-4230
▁begin	-4231
▁blood	-4232
▁hauling	-4233
▁message	-4234
▁portrait	-4235
▁practice	-4236
▁photographed	-4237
des	-4238
view	-4239
▁SOM	-4240
▁lie	-4241
▁pod	-4242
▁tux	-4243
andel	-4244
▁Slic	-4245
▁jars	-4246
▁such	-4247
hedral	-4248
ritish	-4249
ational	-4250
▁Orange	-4251
▁carous	-4252
▁thumbs	-4253
▁chained	-4254
▁festival	-4255
▁christmas	-4256
▁SUR	-4257
▁Lady	-4258
▁asph	-4259
▁kept	-4260
▁Skier	-4261
▁geese	-4262
▁third	-4263
▁Adults	-4264
▁soldiers	-4265
▁uncooked	-4266
iger	-4267
life	-4268
scra	-4269
obile	-4270
▁PARK	-4271
▁Park	-4272
▁ROOM	-4273
▁Clock	-4274
▁gravy	-4275
▁grown	-4276
▁sails	-4277
▁elabor	-4278
▁plains	-4279
▁depicting	-4280
▁figurines	-4281
HER	-4282
ipe	-4283
▁So	-4284
▁na	-4285
ills	-4286
▁Bat	-4287
▁CAR	-4288
▁emb	-4289
▁nur	-4290
▁Sand	-4291
▁prot	-4292
▁skil	-4293
▁stom	-4294
▁knees	-4295
▁piles	-4296
▁shines	-4297
▁stable	-4298
▁digital	-4299
▁seating	-4300
▁carousel	-4301
▁backpacks	-4302
cy	-4303
ams	-4304
▁army	-4305
▁disk	-4306
▁worn	-4307
▁SKATE	-4308
▁TRAIN	-4309
▁appear	-4310
▁barbed	-4311
▁medium	-4312
▁roller	-4313
▁towing	-4314
▁asphalt	-4315
▁package	-4316
▁placing	-4317
▁toasted	-4318
▁conveyor	-4319
▁sneakers	-4320
▁customers	-4321
▁staircase	-4322
NIS	-4323
REE	-4324
ude	-4325
▁Al	-4326
▁PI	-4327
ions	-4328
▁COM	-4329
▁rot	-4330
▁Wood	-4331
▁Living	-4332
▁Police	-4333
▁kettle	-4334
▁closely	-4335
▁oriental	-4336
▁tourists	-4337
▁billboard	-4338
▁competing	-4339
PL	-4340
OWN	-4341
emb	-4342
ipp	-4343
rew	-4344
ells	-4345
ately	-4346
▁grab	-4347
▁note	-4348
▁GRASS	-4349
▁Horse	-4350
▁Japan	-4351
▁crack	-4352
▁meats	-4353
▁youth	-4354
▁scenic	-4355
▁adorned	-4356
▁printer	-4357
▁skyscra	-4358
▁stomach	-4359
▁returning	-4360
▁Motorcycles	-4361
ains	-4362
osed	-4363
truck	-4364
▁BLACK	-4365
▁PLATE	-4366
▁lobby	-4367
▁pears	-4368
▁press	-4369
▁marked	-4370
▁cluster	-4371
▁planter	-4372
▁stripes	-4373
▁directly	-4374
▁keyboards	-4375
▁warehouse	-4376
CE	-4377
ST	-4378
hat	-4379
res	-4380
▁FL	-4381
elly	-4382
ient	-4383
ikes	-4384
otic	-4385
▁Che	-4386
attoo	-4387
▁Open	-4388
▁anch	-4389
▁foli	-4390
▁hind	-4391
▁tube	-4392
▁barbe	-4393
▁inspe	-4394
▁Double	-4395
▁TENNIS	-4396
▁shrubs	-4397
▁stalls	-4398
▁Flowers	-4399
▁farmers	-4400
▁rocking	-4401
▁powdered	-4402
▁savannah	-4403
▁selection	-4404
rup	-4405
▁Ha	-4406
▁UP	-4407
▁Del	-4408
▁SIGN	-4409
▁bean	-4410
▁call	-4411
▁ones	-4412
▁blueb	-4413
▁racks	-4414
▁donkey	-4415
▁places	-4416
▁towers	-4417
▁foliage	-4418
▁shuttle	-4419
▁stationary	-4420
▁strawberry	-4421
▁eas	-4422
▁rob	-4423
▁sau	-4424
▁Road	-4425
▁trio	-4426
▁trip	-4427
▁were	-4428
▁Canad	-4429
▁extra	-4430
▁metro	-4431
▁slide	-4432
▁chrome	-4433
▁cruise	-4434
▁pocket	-4435
▁puddle	-4436
▁British	-4437
▁attract	-4438
▁barrier	-4439
▁teenage	-4440
▁bookcase	-4441
▁entering	-4442
▁opponent	-4443
▁roadside	-4444
▁cathedral	-4445
gen	-4446
▁At	-4447
▁pig	-4448
▁sol	-4449
ishes	-4450
ively	-4451
uched	-4452
▁Fire	-4453
▁chan	-4454
▁conf	-4455
▁help	-4456
▁Sandw	-4457
▁WATER	-4458
▁names	-4459
▁suite	-4460
▁midair	-4461
▁podium	-4462
▁English	-4463
▁LOOKING	-4464
▁Luggage	-4465
▁deserted	-4466
▁interact	-4467
▁crouching	-4468
▁stretched	-4469
IM	-4470
▁6	-4471
ont	-4472
orn	-4473
VING	-4474
tery	-4475
▁Bab	-4476
▁coo	-4477
▁tex	-4478
deled	-4479
▁meas	-4480
ixture	-4481
▁macar	-4482
▁scrat	-4483
▁subur	-4484
▁shapes	-4485
▁stools	-4486
▁cubicle	-4487
▁special	-4488
▁balances	-4489
▁intently	-4490
▁shoulders	-4491
ONE	-4492
▁gy	-4493
ccup	-4494
▁KIT	-4495
▁OUT	-4496
▁cud	-4497
▁Comp	-4498
▁Very	-4499
▁logo	-4500
▁rubb	-4501
▁Veget	-4502
▁checks	-4503
▁stores	-4504
▁tattoo	-4505
▁harness	-4506
▁soldier	-4507
▁listening	-4508
▁paintings	-4509
▁electrical	-4510
GET	-4511
rong	-4512
▁love	-4513
▁mane	-4514
▁nest	-4515
father	-4516
▁diner	-4517
▁dusty	-4518
▁necks	-4519
▁rings	-4520
▁leaned	-4521
▁maroon	-4522
▁archite	-4523
▁mixture	-4524
▁dressing	-4525
▁chopsticks	-4526
ye	-4527
iner	-4528
lain	-4529
▁pay	-4530
▁tee	-4531
ments	-4532
▁dash	-4533
▁unit	-4534
▁crate	-4535
▁feeds	-4536
▁Donuts	-4537
▁frozen	-4538
▁groups	-4539
▁partly	-4540
▁runner	-4541
▁commode	-4542
▁muffins	-4543
▁outfits	-4544
▁stepping	-4545
▁wheelchair	-4546
NG	-4547
ern	-4548
amas	-4549
ummy	-4550
▁SKI	-4551
▁dug	-4552
▁tim	-4553
▁vac	-4554
viron	-4555
▁BASE	-4556
▁Play	-4557
▁when	-4558
▁Light	-4559
▁newly	-4560
▁tuxed	-4561
▁curious	-4562
▁parasol	-4563
▁rubbing	-4564
▁texting	-4565
vironment	-4566
▁macaroni	-4567
▁boardwalk	-4568
▁ki	-4569
alle	-4570
cept	-4571
eter	-4572
like	-4573
utes	-4574
▁All	-4575
▁dip	-4576
▁sum	-4577
▁yog	-4578
▁emer	-4579
▁loaf	-4580
ically	-4581
▁antel	-4582
▁apart	-4583
▁claim	-4584
▁radio	-4585
▁syrup	-4586
▁floats	-4587
▁tourist	-4588
▁artistic	-4589
▁starting	-4590
▁Snowboarder	-4591
▁environment	-4592
▁rectangular	-4593
ERY	-4594
cue	-4595
▁id	-4596
▁AIR	-4597
▁LAR	-4598
▁RED	-4599
▁ble	-4600
▁fog	-4601
▁gun	-4602
▁paj	-4603
▁sat	-4604
atula	-4605
erman	-4606
ution	-4607
▁STOP	-4608
▁SURF	-4609
▁limb	-4610
▁array	-4611
▁cooks	-4612
▁major	-4613
▁shots	-4614
▁stump	-4615
▁touch	-4616
▁blinds	-4617
▁infant	-4618
▁serves	-4619
▁caption	-4620
▁chandel	-4621
▁dipping	-4622
▁ostrich	-4623
▁peering	-4624
▁spatula	-4625
▁bicyclist	-4626
▁operating	-4627
▁stretches	-4628
AGE	-4629
ino	-4630
urt	-4631
▁HOR	-4632
▁try	-4633
▁Baby	-4634
▁Boys	-4635
▁camp	-4636
▁lodge	-4637
▁sharp	-4638
▁tiger	-4639
inished	-4640
▁Pedest	-4641
▁crates	-4642
▁African	-4643
▁excited	-4644
▁figures	-4645
▁spotted	-4646
▁flipping	-4647
▁speeding	-4648
▁streetlight	-4649
▁refrigerators	-4650
ibly	-4651
▁ELE	-4652
▁gym	-4653
▁mes	-4654
amboo	-4655
▁Here	-4656
▁bump	-4657
▁priv	-4658
celain	-4659
▁LARGE	-4660
▁ferry	-4661
▁needs	-4662
▁Female	-4663
▁bamboo	-4664
▁inform	-4665
▁shrubb	-4666
▁tissue	-4667
▁signage	-4668
▁skillet	-4669
▁Pedestri	-4670
▁spacious	-4671
▁grassland	-4672
▁policeman	-4673
▁cobblestone	-4674
▁grandfather	-4675
UR	-4676
aves	-4677
fall	-4678
rand	-4679
▁CLO	-4680
▁Gra	-4681
▁SUV	-4682
field	-4683
▁else	-4684
▁pies	-4685
acting	-4686
▁angle	-4687
▁extre	-4688
▁quick	-4689
▁start	-4690
▁Bright	-4691
▁Modern	-4692
▁cherry	-4693
▁hitter	-4694
▁younger	-4695
▁remodeled	-4696
sa	-4697
ripe	-4698
▁Out	-4699
▁dual	-4700
▁tidy	-4701
▁demon	-4702
▁dozen	-4703
▁roman	-4704
▁sofas	-4705
▁calico	-4706
▁curved	-4707
▁entree	-4708
▁artwork	-4709
▁engaged	-4710
▁Airlines	-4711
▁clearing	-4712
▁sprinkled	-4713
▁mountainous	-4714
ILD	-4715
mar	-4716
umn	-4717
icip	-4718
iday	-4719
▁DOWN	-4720
▁done	-4721
▁tuck	-4722
▁craft	-4723
▁plush	-4724
▁spots	-4725
▁sweet	-4726
▁EATING	-4727
▁stunts	-4728
▁washer	-4729
▁Bunches	-4730
▁Smiling	-4731
▁pajamas	-4732
▁European	-4733
▁somewhere	-4734
▁'	-4735
▁ram	-4736
▁memb	-4737
▁menu	-4738
▁sauc	-4739
▁thru	-4740
▁jelly	-4741
▁ships	-4742
▁letter	-4743
▁skinny	-4744
▁balance	-4745
▁glowing	-4746
▁awaiting	-4747
▁carriages	-4748
▁shrubbery	-4749
▁furnishing	-4750
IGHT	-4751
▁BED	-4752
▁Bic	-4753
▁Sil	-4754
▁ran	-4755
ckets	-4756
▁Older	-4757
▁alarm	-4758
▁movie	-4759
▁Batter	-4760
▁bigger	-4761
▁tagged	-4762
▁elaborate	-4763
▁identical	-4764
AIR	-4765
off	-4766
ppy	-4767
▁Em	-4768
ends	-4769
▁For	-4770
▁Mar	-4771
▁bla	-4772
▁dam	-4773
▁fix	-4774
▁ton	-4775
venue	-4776
▁Hand	-4777
▁gour	-4778
▁infl	-4779
▁biker	-4780
▁ottom	-4781
▁trave	-4782
▁weeds	-4783
fashion	-4784
▁Inside	-4785
▁barren	-4786
▁farmer	-4787
▁rubber	-4788
▁viewed	-4789
▁bowling	-4790
▁fingers	-4791
▁appliance	-4792
▁porcelain	-4793
▁unfinished	-4794
BO	-4795
cuit	-4796
kers	-4797
ushi	-4798
▁BOY	-4799
▁hut	-4800
▁raw	-4801
aging	-4802
ilted	-4803
▁SIDE	-4804
▁hear	-4805
▁junk	-4806
▁real	-4807
▁super	-4808
▁banner	-4809
▁cutter	-4810
▁moored	-4811
▁treats	-4812
▁cooling	-4813
▁dancing	-4814
▁pitched	-4815
fashioned	-4816
▁Assorted	-4817
▁wildlife	-4818
▁separated	-4819
AFF	-4820
ITY	-4821
pid	-4822
▁Cl	-4823
▁LI	-4824
onal	-4825
pris	-4826
▁esc	-4827
▁cast	-4828
▁pork	-4829
▁rabb	-4830
▁bunny	-4831
▁parts	-4832
▁swung	-4833
▁tying	-4834
▁gaming	-4835
▁engines	-4836
▁suburban	-4837
▁pineapple	-4838
▁Professional	-4839
het	-4840
yed	-4841
▁ox	-4842
▁emp	-4843
▁led	-4844
alled	-4845
▁Herd	-4846
▁penc	-4847
▁notes	-4848
▁treat	-4849
▁Apples	-4850
▁contra	-4851
▁handic	-4852
▁lining	-4853
▁handbag	-4854
▁lifting	-4855
▁equipped	-4856
▁stripped	-4857
fo	-4858
ote	-4859
ugs	-4860
uzzy	-4861
▁Gre	-4862
▁Int	-4863
▁pads	-4864
shield	-4865
▁BEACH	-4866
▁opens	-4867
▁towed	-4868
▁athlet	-4869
▁celery	-4870
▁hoodie	-4871
▁locked	-4872
▁stacks	-4873
▁walled	-4874
▁buttons	-4875
▁viewing	-4876
▁possibly	-4877
▁teaching	-4878
▁chandelier	-4879
PH	-4880
ELL	-4881
rie	-4882
park	-4883
▁dro	-4884
▁pil	-4885
▁tro	-4886
▁Crow	-4887
▁file	-4888
▁lead	-4889
▁lime	-4890
▁mail	-4891
▁mean	-4892
▁SMALL	-4893
▁bends	-4894
▁maker	-4895
▁mural	-4896
▁ovens	-4897
▁rough	-4898
▁wallp	-4899
▁Laptop	-4900
▁hiking	-4901
▁pigeon	-4902
▁express	-4903
▁handles	-4904
▁happily	-4905
▁hipster	-4906
▁necktie	-4907
▁breaking	-4908
▁forested	-4909
iam	-4910
par	-4911
aggy	-4912
noon	-4913
▁cot	-4914
dless	-4915
▁iced	-4916
▁wool	-4917
▁silly	-4918
▁blocks	-4919
▁garlic	-4920
▁letting	-4921
▁whipped	-4922
▁windshield	-4923
ION	-4924
foot	-4925
▁adm	-4926
▁bid	-4927
▁rim	-4928
imate	-4929
▁CITY	-4930
▁jeep	-4931
▁rode	-4932
▁tech	-4933
uments	-4934
▁clown	-4935
▁crest	-4936
▁eagle	-4937
▁horiz	-4938
▁outst	-4939
▁plent	-4940
▁steer	-4941
▁Wooden	-4942
▁powder	-4943
▁tuxedo	-4944
▁grouped	-4945
▁holiday	-4946
▁ottoman	-4947
▁ridding	-4948
▁crackers	-4949
▁crouched	-4950
▁outfield	-4951
▁unloading	-4952
▁waterfall	-4953
▁furnishings	-4954
▁interacting	-4955
▁traditional	-4956
▁windsurfing	-4957
alo	-4958
law	-4959
▁Me	-4960
▁iP	-4961
tern	-4962
zens	-4963
▁def	-4964
acent	-4965
andal	-4966
itive	-4967
▁aged	-4968
▁cock	-4969
▁peas	-4970
▁situ	-4971
▁GROUP	-4972
▁local	-4973
▁pengu	-4974
▁sushi	-4975
vention	-4976
▁Indian	-4977
▁attent	-4978
▁hanger	-4979
▁letters	-4980
▁afternoon	-4981
▁attractive	-4982
▁playground	-4983
ence	-4984
ocad	-4985
▁Bow	-4986
▁Sun	-4987
ROUND	-4988
osing	-4989
ually	-4990
▁Tour	-4991
▁coke	-4992
▁foam	-4993
▁pane	-4994
▁reno	-4995
▁roas	-4996
▁tram	-4997
ulated	-4998
uminum	-4999
▁Kites	-5000
▁bulls	-5001
▁shred	-5002
berries	-5003
▁horned	-5004
▁poised	-5005
▁slides	-5006
▁upward	-5007
▁yogurt	-5008
▁blurred	-5009
▁Computer	-5010
▁adjacent	-5011
▁blocking	-5012
▁pitchers	-5013
▁bicyclists	-5014
gn	-5015
ANE	-5016
een	-5017
ache	-5018
arth	-5019
▁fit	-5020
▁fle	-5021
▁goo	-5022
▁hud	-5023
ivity	-5024
▁cent	-5025
▁wrap	-5026
leslaw	-5027
▁CHILD	-5028
▁coats	-5029
▁lower	-5030
▁motel	-5031
▁scale	-5032
▁theme	-5033
flowers	-5034
retched	-5035
▁Cattle	-5036
▁bullet	-5037
▁called	-5038
▁halves	-5039
▁preten	-5040
▁shaggy	-5041
▁Surfers	-5042
▁biscuit	-5043
▁stained	-5044
▁watched	-5045
▁Japanese	-5046
▁aluminum	-5047
▁chickens	-5048
▁followed	-5049
▁automobile	-5050
▁silhouette	-5051
UE	-5052
VE	-5053
ics	-5054
▁WIN	-5055
▁rel	-5056
acter	-5057
inger	-5058
▁FOOD	-5059
▁VERY	-5060
▁fema	-5061
▁gall	-5062
▁leave	-5063
▁money	-5064
▁belong	-5065
▁stripe	-5066
▁gliding	-5067
▁gourmet	-5068
▁perches	-5069
▁pointed	-5070
▁provide	-5071
▁strings	-5072
▁coleslaw	-5073
▁directing	-5074
▁firetruck	-5075
▁7	-5076
ose	-5077
▁RI	-5078
▁Sp	-5079
alks	-5080
temp	-5081
wear	-5082
izing	-5083
thing	-5084
▁NEAR	-5085
▁carn	-5086
▁cubs	-5087
▁page	-5088
▁cards	-5089
▁setup	-5090
▁avocad	-5091
▁bricks	-5092
▁diving	-5093
▁driven	-5094
▁dugout	-5095
▁guests	-5096
▁mixing	-5097
▁poking	-5098
▁unripe	-5099
▁females	-5100
▁flatbed	-5101
▁folding	-5102
▁grasses	-5103
▁portion	-5104
▁powered	-5105
▁surpris	-5106
▁feathers	-5107
▁Vegetables	-5108
▁outstretched	-5109
BR	-5110
UM	-5111
ua	-5112
▁BR	-5113
▁SE	-5114
ilar	-5115
nequ	-5116
▁Spe	-5117
▁asc	-5118
▁pir	-5119
▁SOME	-5120
▁shed	-5121
▁sled	-5122
▁spar	-5123
▁tort	-5124
atable	-5125
▁panel	-5126
▁visit	-5127
▁United	-5128
▁cycles	-5129
▁pillar	-5130
▁relish	-5131
▁saddle	-5132
▁skates	-5133
▁company	-5134
▁dinning	-5135
▁humming	-5136
▁similar	-5137
▁sausages	-5138
▁character	-5139
▁uniformed	-5140
▁Assortment	-5141
▁toiletries	-5142
▁Pedestrians	-5143
ai	-5144
ROW	-5145
bee	-5146
ury	-5147
PING	-5148
tled	-5149
▁hun	-5150
▁wax	-5151
avily	-5152
erior	-5153
green	-5154
illed	-5155
▁Half	-5156
anging	-5157
▁Seven	-5158
▁Table	-5159
▁dolls	-5160
▁falls	-5161
▁heels	-5162
▁holes	-5163
▁socks	-5164
▁plenty	-5165
▁vandal	-5166
▁bedding	-5167
▁butterf	-5168
▁compact	-5169
▁peeling	-5170
▁pottery	-5171
▁protest	-5172
▁quickly	-5173
▁crouches	-5174
▁flowered	-5175
▁steering	-5176
▁backwards	-5177
▁wandering	-5178
▁sweatshirt	-5179
AME	-5180
inn	-5181
yond	-5182
▁Meat	-5183
▁Oran	-5184
▁cong	-5185
▁news	-5186
▁robe	-5187
▁spro	-5188
ashing	-5189
ountry	-5190
▁Empty	-5191
▁champ	-5192
▁herbs	-5193
▁hilly	-5194
▁pipes	-5195
▁roast	-5196
▁beyond	-5197
▁Oranges	-5198
▁plugged	-5199
▁antelope	-5200
▁inflatable	-5201
ZZ	-5202
AKE	-5203
aff	-5204
▁VE	-5205
agus	-5206
vest	-5207
zzly	-5208
▁nav	-5209
▁oil	-5210
▁tug	-5211
▁pets	-5212
▁vast	-5213
▁bidet	-5214
▁bites	-5215
▁relax	-5216
▁cooler	-5217
▁descri	-5218
▁mantle	-5219
▁nearly	-5220
▁rabbit	-5221
▁skiier	-5222
▁Bicycle	-5223
▁Carrots	-5224
▁accents	-5225
▁complet	-5226
▁contemp	-5227
▁distant	-5228
▁speaker	-5229
▁stocked	-5230
▁anchored	-5231
▁location	-5232
▁situated	-5233
▁cucumbers	-5234
▁measuring	-5235
▁parasailing	-5236
mel	-5237
CHEN	-5238
ILET	-5239
elle	-5240
olli	-5241
▁MOT	-5242
▁York	-5243
▁cord	-5244
▁slab	-5245
▁swan	-5246
▁china	-5247
▁eight	-5248
▁embra	-5249
▁leaps	-5250
▁ramps	-5251
▁roads	-5252
▁consum	-5253
▁decked	-5254
▁kneels	-5255
▁retrie	-5256
▁KITCHEN	-5257
▁Vintage	-5258
▁raising	-5259
▁chopping	-5260
▁convention	-5261
▁comfortable	-5262
ELD	-5263
ert	-5264
str	-5265
BALL	-5266
agne	-5267
ased	-5268
iced	-5269
mbol	-5270
▁HER	-5271
▁YOU	-5272
▁fut	-5273
▁cops	-5274
▁nuzz	-5275
achers	-5276
▁ELEPH	-5277
▁aspar	-5278
▁fuzzy	-5279
▁sleek	-5280
▁TOILET	-5281
▁corral	-5282
▁discus	-5283
▁melted	-5284
▁rolled	-5285
▁social	-5286
▁unable	-5287
▁caution	-5288
▁current	-5289
▁mannequ	-5290
▁teenagers	-5291
▁vandalized	-5292
▁interactive	-5293
IE	-5294
EAR	-5295
PLE	-5296
arn	-5297
oms	-5298
▁BY	-5299
▁rh	-5300
SIDE	-5301
bird	-5302
▁Ave	-5303
▁imp	-5304
▁mem	-5305
▁BALL	-5306
▁PIZZ	-5307
▁boun	-5308
▁ever	-5309
▁reve	-5310
▁scru	-5311
▁helps	-5312
▁share	-5313
▁thats	-5314
▁threw	-5315
▁Animal	-5316
▁assemb	-5317
▁carved	-5318
▁liquor	-5319
▁symbol	-5320
▁ELEPHANT	-5321
▁demonstr	-5322
▁smelling	-5323
RT	-5324
hua	-5325
lete	-5326
▁tet	-5327
▁stem	-5328
▁areas	-5329
▁could	-5330
▁kayak	-5331
▁marsh	-5332
▁midst	-5333
country	-5334
▁Avenue	-5335
▁casser	-5336
▁smiley	-5337
▁smooth	-5338
▁though	-5339
▁cabbage	-5340
▁heavily	-5341
▁wheeled	-5342
▁portable	-5343
▁tortilla	-5344
▁wallpaper	-5345
▁smartphone	-5346
▁storefront	-5347
wk	-5348
ys	-5349
tra	-5350
yle	-5351
▁19	-5352
band	-5353
chan	-5354
omes	-5355
▁Con	-5356
▁nes	-5357
orary	-5358
▁bend	-5359
▁stew	-5360
▁zone	-5361
▁HORSE	-5362
▁PIZZA	-5363
▁appet	-5364
▁meals	-5365
▁price	-5366
▁Toilet	-5367
▁sparse	-5368
▁strike	-5369
▁Parking	-5370
▁carrier	-5371
▁knitted	-5372
▁layered	-5373
▁private	-5374
▁tending	-5375
▁airfield	-5376
▁incoming	-5377
▁asparagus	-5378
▁dashboard	-5379
▁materials	-5380
ana	-5381
box	-5382
ense	-5383
▁jam	-5384
▁kiw	-5385
aghet	-5386
dress	-5387
iring	-5388
▁amer	-5389
▁club	-5390
▁dorm	-5391
▁exit	-5392
▁spre	-5393
▁Cross	-5394
▁MOTOR	-5395
▁emplo	-5396
▁faced	-5397
▁mixer	-5398
▁overs	-5399
▁shake	-5400
▁swans	-5401
▁world	-5402
▁capped	-5403
▁mopeds	-5404
▁pushed	-5405
▁sewing	-5406
▁shaded	-5407
▁slowly	-5408
▁squash	-5409
▁cyclist	-5410
▁posters	-5411
▁stating	-5412
▁takeoff	-5413
▁finished	-5414
▁champagne	-5415
▁completely	-5416
▁motorbikes	-5417
▁protective	-5418
▁information	-5419
▁instruments	-5420
ND	-5421
UL	-5422
YC	-5423
▁DES	-5424
▁FRO	-5425
▁cit	-5426
▁pon	-5427
BOARD	-5428
eaten	-5429
gency	-5430
▁Work	-5431
▁rasp	-5432
▁sour	-5433
▁whit	-5434
▁FIELD	-5435
▁Vehic	-5436
▁crumb	-5437
aghetti	-5438
▁croiss	-5439
▁tucked	-5440
▁biplane	-5441
▁filling	-5442
▁huddled	-5443
▁touches	-5444
▁BASEBALL	-5445
▁barefoot	-5446
▁casserole	-5447
▁skatepark	-5448
▁Passengers	-5449
vet	-5450
olly	-5451
▁Tru	-5452
▁sco	-5453
▁tul	-5454
angle	-5455
▁BEAR	-5456
▁GAME	-5457
▁Star	-5458
▁mugs	-5459
▁oval	-5460
▁temp	-5461
▁Signs	-5462
▁cages	-5463
▁cords	-5464
▁creek	-5465
▁crown	-5466
▁stare	-5467
gerator	-5468
▁GIRAFF	-5469
▁prepar	-5470
▁soaked	-5471
▁studio	-5472
▁Washing	-5473
▁labeled	-5474
▁Airplane	-5475
▁mustache	-5476
▁sculptures	-5477
▁combination	-5478
▁Am	-5479
aped	-5480
iece	-5481
lymp	-5482
onely	-5483
▁Bird	-5484
▁Grey	-5485
itting	-5486
▁YOUNG	-5487
▁accom	-5488
▁basil	-5489
▁blind	-5490
▁maneu	-5491
▁perch	-5492
▁stems	-5493
▁taped	-5494
▁RIDING	-5495
▁pirate	-5496
▁soaring	-5497
▁training	-5498
▁beginning	-5499
▁briefcase	-5500
▁comfortably	-5501
con	-5502
ola	-5503
ouf	-5504
urs	-5505
REEN	-5506
rely	-5507
▁ges	-5508
sters	-5509
▁Bear	-5510
▁SINK	-5511
▁perf	-5512
▁refe	-5513
▁rise	-5514
planes	-5515
▁Buses	-5516
▁THREE	-5517
▁grape	-5518
▁spire	-5519
▁squir	-5520
▁tires	-5521
▁German	-5522
▁PARKED	-5523
▁canoes	-5524
▁croche	-5525
▁fields	-5526
▁landed	-5527
▁saucer	-5528
▁dresses	-5529
▁napkins	-5530
▁shaving	-5531
▁Sandwich	-5532
▁hydrants	-5533
▁spaghetti	-5534
▁surprised	-5535
▁scratching	-5536
▁volleyball	-5537
RI	-5538
ki	-5539
yl	-5540
▁Q	-5541
ule	-5542
vil	-5543
▁Ob	-5544
▁BIR	-5545
▁Bed	-5546
▁wip	-5547
aling	-5548
▁drop	-5549
▁polo	-5550
▁rele	-5551
▁CLOCK	-5552
▁FRONT	-5553
▁Water	-5554
▁caged	-5555
▁limit	-5556
▁upper	-5557
igating	-5558
▁camouf	-5559
▁dragon	-5560
▁sauces	-5561
▁airline	-5562
▁clearly	-5563
▁gesture	-5564
▁medical	-5565
▁paralle	-5566
▁serious	-5567
▁stretch	-5568
▁featured	-5569
▁numerals	-5570
▁oncoming	-5571
▁cabinetry	-5572
▁installed	-5573
▁Washington	-5574
▁colorfully	-5575
▁presentation	-5576
aw	-5577
can	-5578
min	-5579
▁DI	-5580
▁ult	-5581
cases	-5582
uting	-5583
▁broc	-5584
▁brow	-5585
▁hour	-5586
▁twig	-5587
▁vert	-5588
acters	-5589
▁summer	-5590
▁barrels	-5591
▁camping	-5592
▁grizzly	-5593
▁members	-5594
▁printed	-5595
▁singing	-5596
▁Scissors	-5597
▁carpeted	-5598
▁meatball	-5599
▁cheesecake	-5600
▁mountainside	-5601
du	-5602
▁BB	-5603
▁BEN	-5604
▁Mac	-5605
▁ped	-5606
▁sex	-5607
▁yet	-5608
ebody	-5609
▁Pink	-5610
▁Rows	-5611
▁ends	-5612
▁tusk	-5613
▁yarn	-5614
▁lifts	-5615
▁times	-5616
omebody	-5617
▁Silver	-5618
▁chains	-5619
▁draped	-5620
▁veggie	-5621
▁nothing	-5622
▁relaxes	-5623
▁waffles	-5624
▁american	-5625
▁machines	-5626
▁parallel	-5627
▁shelving	-5628
▁bleachers	-5629
▁cloudless	-5630
▁celebration	-5631
CT	-5632
TLE	-5633
ney	-5634
atic	-5635
book	-5636
itch	-5637
ners	-5638
▁FOR	-5639
lined	-5640
▁brus	-5641
▁cram	-5642
▁rams	-5643
iamese	-5644
▁Elect	-5645
▁cable	-5646
▁quite	-5647
▁santa	-5648
▁stock	-5649
▁Decker	-5650
▁begins	-5651
▁breast	-5652
▁gazing	-5653
▁makeup	-5654
▁picked	-5655
▁styled	-5656
▁flaming	-5657
▁marking	-5658
▁barbecue	-5659
▁consists	-5660
▁greeting	-5661
▁sporting	-5662
▁watermel	-5663
▁blueberries	-5664
kn	-5665
▁&	-5666
▁ZE	-5667
▁er	-5668
aint	-5669
mely	-5670
▁Ant	-5671
▁DIS	-5672
▁Fam	-5673
▁fer	-5674
▁ome	-5675
eties	-5676
▁BLUE	-5677
▁Past	-5678
undred	-5679
▁BENCH	-5680
▁Delta	-5681
▁route	-5682
▁skull	-5683
ificial	-5684
▁bundle	-5685
▁instru	-5686
▁tiered	-5687
▁wallet	-5688
▁musical	-5689
▁penguin	-5690
▁cyclists	-5691
▁darkened	-5692
▁opposing	-5693
▁projector	-5694
▁varieties	-5695
▁Spectators	-5696
▁instruction	-5697
▁preparation	-5698
XT	-5699
rid	-5700
YCLE	-5701
eler	-5702
ises	-5703
what	-5704
▁MEN	-5705
▁Mil	-5706
▁Ste	-5707
▁aim	-5708
▁amb	-5709
▁got	-5710
▁icy	-5711
▁pal	-5712
andom	-5713
atory	-5714
graph	-5715
onder	-5716
xican	-5717
▁BUIL	-5718
▁DESK	-5719
▁Ital	-5720
▁They	-5721
▁ZEBR	-5722
▁coin	-5723
▁crew	-5724
▁fill	-5725
▁lens	-5726
▁Olymp	-5727
▁cemet	-5728
▁wrest	-5729
▁change	-5730
▁choppy	-5731
▁enjoys	-5732
▁frames	-5733
▁tulips	-5734
▁exposed	-5735
▁paddles	-5736
▁perfect	-5737
▁BUILDING	-5738
▁arriving	-5739
▁carnival	-5740
▁presents	-5741
▁emergency	-5742
UG	-5743
cot	-5744
omb	-5745
ixed	-5746
▁BBQ	-5747
▁Way	-5748
▁aqu	-5749
▁mor	-5750
▁pel	-5751
▁rod	-5752
estri	-5753
▁High	-5754
▁boul	-5755
lights	-5756
▁Plane	-5757
▁brand	-5758
▁occup	-5759
▁sword	-5760
▁camper	-5761
▁glides	-5762
▁invest	-5763
▁neckla	-5764
▁Animals	-5765
▁buffalo	-5766
▁extends	-5767
▁follows	-5768
▁regular	-5769
▁sanding	-5770
▁stirring	-5771
▁tethered	-5772
▁characters	-5773
▁bookshelves	-5774
▁countertops	-5775
cut	-5776
▁BI	-5777
▁Ex	-5778
▁TA	-5779
▁WA	-5780
oise	-5781
used	-5782
▁Cla	-5783
▁Fri	-5784
▁Har	-5785
▁MOU	-5786
▁Tow	-5787
▁hur	-5788
aster	-5789
▁Dark	-5790
▁OVER	-5791
▁Tall	-5792
▁aler	-5793
▁bron	-5794
▁hook	-5795
▁horn	-5796
▁pant	-5797
▁tarp	-5798
▁tick	-5799
ippers	-5800
▁Girls	-5801
▁Happy	-5802
▁curvy	-5803
▁doesn	-5804
▁filed	-5805
▁kicks	-5806
▁seven	-5807
▁taxis	-5808
inesses	-5809
▁lonely	-5810
▁season	-5811
▁tanger	-5812
▁damaged	-5813
▁telling	-5814
▁trainer	-5815
▁accompan	-5816
▁crashing	-5817
▁somewhat	-5818
▁butterfly	-5819
▁travelers	-5820
ONG	-5821
ara	-5822
▁Tw	-5823
▁deb	-5824
▁non	-5825
▁oct	-5826
ILING	-5827
inder	-5828
▁Home	-5829
▁appe	-5830
▁bins	-5831
▁mote	-5832
vation	-5833
▁COURT	-5834
▁curly	-5835
▁entry	-5836
▁gradu	-5837
▁knock	-5838
▁peers	-5839
▁rodeo	-5840
▁sight	-5841
▁awning	-5842
▁bushel	-5843
▁jumped	-5844
▁strewn	-5845
▁vacant	-5846
▁buckets	-5847
▁cameras	-5848
▁skiiers	-5849
▁sprouts	-5850
▁steamed	-5851
▁support	-5852
▁balanced	-5853
▁cucumber	-5854
▁official	-5855
▁rounding	-5856
▁Airplanes	-5857
▁extremely	-5858
▁businesses	-5859
▁20	-5860
▁OR	-5861
▁PO	-5862
▁ip	-5863
▁vi	-5864
LASS	-5865
amed	-5866
itan	-5867
▁Bri	-5868
▁Mon	-5869
▁gad	-5870
▁mac	-5871
▁mer	-5872
▁sid	-5873
adows	-5874
berry	-5875
▁BIRD	-5876
▁GIRL	-5877
▁cozy	-5878
▁drum	-5879
▁friz	-5880
▁moon	-5881
▁rese	-5882
▁honey	-5883
▁medic	-5884
▁turqu	-5885
▁vests	-5886
looking	-5887
▁border	-5888
▁carton	-5889
▁finish	-5890
▁random	-5891
▁sniffs	-5892
▁strong	-5893
▁burning	-5894
▁college	-5895
▁flowing	-5896
▁garnish	-5897
▁nestled	-5898
▁brocolli	-5899
▁motorized	-5900
▁nighttime	-5901
▁overlooks	-5902
▁artificial	-5903
▁decorating	-5904
▁propellers	-5905
MB	-5906
SS	-5907
ith	-5908
▁wi	-5909
nuts	-5910
pipe	-5911
rest	-5912
stal	-5913
zing	-5914
▁Bar	-5915
ropol	-5916
▁LOTS	-5917
▁grow	-5918
▁kiss	-5919
▁miss	-5920
▁peac	-5921
▁tide	-5922
▁trek	-5923
esting	-5924
shaped	-5925
▁Obama	-5926
▁belly	-5927
▁limes	-5928
▁olive	-5929
othered	-5930
▁gadget	-5931
▁omelet	-5932
▁plaque	-5933
▁stones	-5934
▁deserts	-5935
▁exiting	-5936
▁morning	-5937
▁removed	-5938
▁warming	-5939
▁Canadian	-5940
▁accident	-5941
▁backhand	-5942
▁striking	-5943
▁evergreen	-5944
▁turquoise	-5945
▁department	-5946
▁historical	-5947
▁architecture	-5948
tes	-5949
▁AP	-5950
OWER	-5951
airy	-5952
dant	-5953
itor	-5954
reme	-5955
rict	-5956
tock	-5957
turn	-5958
▁dom	-5959
▁lip	-5960
▁lun	-5961
▁wig	-5962
ified	-5963
lapid	-5964
▁COMP	-5965
▁flan	-5966
▁give	-5967
eteria	-5968
merged	-5969
▁grabs	-5970
▁graph	-5971
▁homes	-5972
▁paste	-5973
▁pours	-5974
▁sells	-5975
▁windy	-5976
▁Sliced	-5977
▁Slices	-5978
▁arched	-5979
▁rather	-5980
▁spices	-5981
lapidated	-5982
▁Commuter	-5983
▁attention	-5984
▁smothered	-5985
▁microwaves	-5986
▁watermelon	-5987
▁kiteboarding	-5988
50	-5989
▁Is	-5990
▁SL	-5991
HING	-5992
rets	-5993
rons	-5994
wise	-5995
▁LAP	-5996
apers	-5997
iator	-5998
▁Stat	-5999
▁meet	-6000
▁mous	-6001
liners	-6002
▁Beach	-6003
▁Force	-6004
▁GREEN	-6005
▁TRACK	-6006
▁ambul	-6007
▁bulld	-6008
▁early	-6009
▁escal	-6010
▁noses	-6011
▁polit	-6012
▁pregn	-6013
▁stars	-6014
▁marker	-6015
▁mechan	-6016
▁rotten	-6017
▁Antique	-6018
▁athlete	-6019
▁avocado	-6020
▁depicts	-6021
▁lounges	-6022
▁nursing	-6023
▁referee	-6024
▁cuddling	-6025
▁flavored	-6026
▁shredded	-6027
▁garnished	-6028
▁submerged	-6029
▁underwear	-6030
▁everywhere	-6031
▁directional	-6032
▁Re	-6033
dges	-6034
▁Bre	-6035
▁Dis	-6036
▁Wor	-6037
▁cry	-6038
▁dun	-6039
▁lux	-6040
▁web	-6041
opped	-6042
rispy	-6043
using	-6044
▁BACK	-6045
▁HAND	-6046
▁NEXT	-6047
▁best	-6048
▁blaz	-6049
▁easy	-6050
▁know	-6051
▁pale	-6052
▁slaw	-6053
EARING	-6054
estern	-6055
▁blows	-6056
▁found	-6057
▁racer	-6058
unching	-6059
▁Mother	-6060
▁debris	-6061
▁passed	-6062
▁rising	-6063
▁skills	-6064
▁speeds	-6065
▁batters	-6066
▁compete	-6067
▁facility	-6068
▁historic	-6069
▁particip	-6070
▁hummingbird	-6071
▁raspberries	-6072
▁skyscrapers	-6073
cul	-6074
upe	-6075
▁IM	-6076
bled	-6077
shes	-6078
▁caf	-6079
▁san	-6080
bread	-6081
brush	-6082
fruit	-6083
ister	-6084
▁Lone	-6085
▁boot	-6086
▁craw	-6087
▁kiwi	-6088
▁mesh	-6089
▁navy	-6090
▁rugs	-6091
▁shoo	-6092
▁angry	-6093
▁drain	-6094
▁gated	-6095
▁liner	-6096
▁rises	-6097
▁stalk	-6098
▁today	-6099
station	-6100
undreds	-6101
▁legged	-6102
▁safari	-6103
▁digging	-6104
▁kittens	-6105
▁milking	-6106
ropolitan	-6107
▁Tourists	-6108
▁cemetery	-6109
▁mirrored	-6110
▁pregnant	-6111
▁trailing	-6112
▁cafeteria	-6113
▁indicates	-6114
▁Commercial	-6115
▁belongings	-6116
iqu	-6117
ails	-6118
airs	-6119
alls	-6120
alog	-6121
foam	-6122
lane	-6123
pher	-6124
▁Pur	-6125
▁est	-6126
▁que	-6127
ingle	-6128
ready	-6129
▁DIFF	-6130
▁SAND	-6131
▁king	-6132
▁torn	-6133
▁yach	-6134
GETHER	-6135
▁Glass	-6136
▁Numer	-6137
▁burnt	-6138
▁picks	-6139
▁shady	-6140
▁wines	-6141
▁busted	-6142
▁buying	-6143
▁crafts	-6144
▁plated	-6145
▁pushes	-6146
▁ridden	-6147
▁Airways	-6148
▁bricked	-6149
▁carving	-6150
▁milling	-6151
▁parents	-6152
▁Graffiti	-6153
▁wetsuits	-6154
▁gentlemen	-6155
▁snuggling	-6156
▁camouflage	-6157
▁everything	-6158
▁expression	-6159
AG	-6160
pa	-6161
ENT	-6162
mat	-6163
reo	-6164
MBRE	-6165
ngth	-6166
sion	-6167
tles	-6168
▁Cal	-6169
▁Coc	-6170
▁Des	-6171
▁ONE	-6172
▁hid	-6173
▁wok	-6174
arian	-6175
dated	-6176
lines	-6177
lings	-6178
urity	-6179
▁Teen	-6180
▁late	-6181
▁leas	-6182
▁lion	-6183
haired	-6184
▁UMBRE	-6185
▁alert	-6186
▁chalk	-6187
▁knick	-6188
▁techn	-6189
estrian	-6190
▁Blurry	-6191
▁Purple	-6192
▁autumn	-6193
▁bagels	-6194
▁bumper	-6195
▁dotted	-6196
▁lifted	-6197
▁linens	-6198
▁mouths	-6199
▁appetiz	-6200
▁cracked	-6201
▁guiding	-6202
▁knocked	-6203
▁shelter	-6204
▁student	-6205
▁TOGETHER	-6206
▁medicine	-6207
▁ultimate	-6208
▁wireless	-6209
▁wrapping	-6210
▁embracing	-6211
▁paperwork	-6212
▁splashing	-6213
▁competitive	-6214
▁dilapidated	-6215
LD	-6216
ICE	-6217
UCK	-6218
▁OP	-6219
amon	-6220
door	-6221
hich	-6222
lets	-6223
tage	-6224
▁Art	-6225
▁JUM	-6226
▁las	-6227
▁nut	-6228
ERENT	-6229
ening	-6230
▁Side	-6231
▁beat	-6232
▁clim	-6233
▁cola	-6234
▁sexy	-6235
▁then	-6236
ilding	-6237
ilight	-6238
rofoam	-6239
▁beers	-6240
▁dance	-6241
▁resid	-6242
▁rooms	-6243
▁ropes	-6244
▁sided	-6245
▁FLYING	-6246
▁amidst	-6247
▁commun	-6248
▁lovely	-6249
▁raises	-6250
▁splash	-6251
▁Italian	-6252
▁WEARING	-6253
▁already	-6254
▁blocked	-6255
▁gazelle	-6256
▁vending	-6257
▁smoothie	-6258
▁tabletop	-6259
▁washroom	-6260
▁condition	-6261
▁escalator	-6262
▁processor	-6263
▁inspecting	-6264
▁pretending	-6265
▁skyscraper	-6266
▁transporting	-6267
gin	-6268
oid	-6269
oke	-6270
▁ALL	-6271
▁inv	-6272
▁job	-6273
eries	-6274
ilies	-6275
rings	-6276
▁CAKE	-6277
▁buss	-6278
▁chat	-6279
▁dais	-6280
▁moss	-6281
▁plow	-6282
▁styl	-6283
▁trey	-6284
verted	-6285
▁Eight	-6286
▁GLASS	-6287
▁force	-6288
▁goose	-6289
▁lanes	-6290
▁seeds	-6291
risbees	-6292
▁Family	-6293
▁LIVING	-6294
▁Soccer	-6295
▁arrows	-6296
▁intric	-6297
▁archway	-6298
▁bottled	-6299
▁crystal	-6300
▁pillars	-6301
▁sandals	-6302
▁shadows	-6303
▁Frisbees	-6304
▁Vehicles	-6305
▁admiring	-6306
▁athletic	-6307
▁cherries	-6308
▁decorate	-6309
▁describe	-6310
▁squirrel	-6311
▁DIFFERENT	-6312
▁attending	-6313
▁examining	-6314
▁lettering	-6315
▁magazines	-6316
▁policemen	-6317
▁destination	-6318
▁metropolitan	-6319
KS	-6320
fu	-6321
ict	-6322
come	-6323
▁BAN	-6324
▁SKY	-6325
▁lam	-6326
▁woo	-6327
anted	-6328
▁Dogs	-6329
▁Wild	-6330
▁cact	-6331
▁dome	-6332
▁enth	-6333
▁gone	-6334
▁less	-6335
▁bells	-6336
▁faded	-6337
▁frisb	-6338
▁state	-6339
▁boxing	-6340
▁bronze	-6341
▁exotic	-6342
▁patrol	-6343
▁stored	-6344
▁triple	-6345
▁holders	-6346
▁incline	-6347
▁jockeys	-6348
▁paneled	-6349
▁remains	-6350
▁returns	-6351
▁squares	-6352
▁captured	-6353
▁deckered	-6354
▁grouping	-6355
▁hovering	-6356
▁necklace	-6357
▁pumpkins	-6358
▁security	-6359
▁ambulance	-6360
▁otherwise	-6361
▁8	-6362
ala	-6363
reg	-6364
▁10	-6365
▁my	-6366
NDER	-6367
erst	-6368
food	-6369
iver	-6370
opus	-6371
▁Cle	-6372
▁Fed	-6373
▁HAS	-6374
▁Jet	-6375
▁ais	-6376
▁inc	-6377
▁tar	-6378
ctors	-6379
pical	-6380
strip	-6381
▁WOOD	-6382
▁auto	-6383
▁diag	-6384
▁gown	-6385
▁neut	-6386
▁pita	-6387
▁push	-6388
▁seed	-6389
▁your	-6390
ycling	-6391
▁CHAIR	-6392
▁Crowd	-6393
▁cerem	-6394
▁condu	-6395
▁docks	-6396
▁earth	-6397
▁gates	-6398
▁label	-6399
▁purch	-6400
▁sound	-6401
innamon	-6402
pective	-6403
▁AROUND	-6404
▁Trains	-6405
▁backed	-6406
▁calcul	-6407
▁except	-6408
▁hovers	-6409
▁length	-6410
▁retail	-6411
▁should	-6412
▁waffle	-6413
▁walked	-6414
▁UMBRELL	-6415
▁adjusts	-6416
▁bundled	-6417
▁napping	-6418
▁wheeler	-6419
▁Military	-6420
▁daylight	-6421
▁littered	-6422
▁trashcan	-6423
▁grapefruit	-6424
▁stoplights	-6425
▁accompanied	-6426
hy	-6427
rs	-6428
▁9	-6429
erc	-6430
ize	-6431
usi	-6432
▁Or	-6433
▁Sw	-6434
back	-6435
bank	-6436
zard	-6437
▁LIT	-6438
▁aff	-6439
▁gla	-6440
▁lat	-6441
▁oak	-6442
▁wro	-6443
arent	-6444
piece	-6445
▁Room	-6446
▁duff	-6447
▁fist	-6448
▁lite	-6449
▁mill	-6450
▁orch	-6451
▁samp	-6452
▁teal	-6453
enting	-6454
turned	-6455
▁IMAGE	-6456
▁basic	-6457
▁flips	-6458
▁hairy	-6459
▁overg	-6460
▁sunsh	-6461
▁Banana	-6462
▁Player	-6463
▁SKIING	-6464
▁barely	-6465
▁barric	-6466
▁goalie	-6467
▁grinds	-6468
▁heater	-6469
▁mascot	-6470
▁tilted	-6471
▁Altered	-6472
▁Chicken	-6473
▁Friends	-6474
▁caboose	-6475
▁contest	-6476
▁fixture	-6477
▁frizbee	-6478
▁horizon	-6479
▁puppies	-6480
▁airlines	-6481
▁formally	-6482
▁radiator	-6483
▁snowsuit	-6484
▁twilight	-6485
▁visitors	-6486
▁Passenger	-6487
▁ascending	-6488
▁mannequin	-6489
▁reclining	-6490
▁sectional	-6491
▁televisions	-6492
nd	-6493
▁Mc	-6494
▁Up	-6495
▁fu	-6496
▁tr	-6497
PLAY	-6498
hold	-6499
iche	-6500
oram	-6501
raut	-6502
▁Cup	-6503
▁War	-6504
▁You	-6505
▁ske	-6506
▁var	-6507
bucks	-6508
cause	-6509
cient	-6510
itude	-6511
lable	-6512
▁Coca	-6513
▁OPEN	-6514
▁WIND	-6515
▁anim	-6516
▁claw	-6517
▁frog	-6518
▁juic	-6519
▁mama	-6520
▁span	-6521
▁tofu	-6522
▁whis	-6523
iently	-6524
ormous	-6525
▁Break	-6526
▁Decor	-6527
▁aisle	-6528
▁amuse	-6529
▁lapse	-6530
▁oddly	-6531
▁spark	-6532
uilding	-6533
▁Fruits	-6534
▁access	-6535
▁analog	-6536
▁biking	-6537
▁calves	-6538
▁hidden	-6539
▁record	-6540
▁wonder	-6541
▁JUMPING	-6542
▁divided	-6543
▁octopus	-6544
▁pencils	-6545
▁cinnamon	-6546
▁enormous	-6547
▁examines	-6548
▁function	-6549
▁reflects	-6550
▁stairway	-6551
▁Beautiful	-6552
▁extending	-6553
▁sandwhich	-6554
▁sunflowers	-6555
ebe	-6556
uis	-6557
▁GO	-6558
▁Lo	-6559
anse	-6560
cess	-6561
hone	-6562
olog	-6563
▁Cow	-6564
▁Pot	-6565
▁jug	-6566
▁tip	-6567
▁wel	-6568
issor	-6569
ivers	-6570
ppost	-6571
style	-6572
▁Gold	-6573
▁avai	-6574
▁cane	-6575
▁clad	-6576
▁dang	-6577
▁fora	-6578
▁hazy	-6579
▁kits	-6580
▁sear	-6581
▁seem	-6582
▁Night	-6583
▁VEGET	-6584
▁gener	-6585
▁grain	-6586
▁hedge	-6587
▁named	-6588
▁pilot	-6589
▁robot	-6590
▁tired	-6591
▁COMPUT	-6592
▁Canada	-6593
▁burrit	-6594
▁citrus	-6595
▁owners	-6596
▁waling	-6597
▁washed	-6598
▁wiping	-6599
▁DISPLAY	-6600
▁GIRAFFE	-6601
▁Mexican	-6602
▁SMILING	-6603
▁beached	-6604
▁because	-6605
▁candies	-6606
▁enthusi	-6607
▁handleb	-6608
▁roasted	-6609
▁scenery	-6610
▁taxiing	-6611
▁typical	-6612
▁airstrip	-6613
▁ceremony	-6614
▁everyone	-6615
▁lamppost	-6616
▁packages	-6617
▁platters	-6618
▁radishes	-6619
▁recliner	-6620
▁Breakfast	-6621
▁VEGETABLE	-6622
▁amusement	-6623
▁galloping	-6624
▁presented	-6625
▁equestrian	-6626
▁tangerines	-6627
▁waterfront	-6628
▁surfboarding	-6629
▁advertisements	-6630
EP	-6631
ISB	-6632
UFF	-6633
WAY	-6634
ago	-6635
ead	-6636
oman	-6637
uses	-6638
▁FLO	-6639
▁OLD	-6640
▁Pep	-6641
▁fas	-6642
▁hug	-6643
ament	-6644
apped	-6645
esame	-6646
inery	-6647
pherd	-6648
▁Part	-6649
▁came	-6650
▁dots	-6651
▁foal	-6652
▁hawk	-6653
▁vent	-6654
arsely	-6655
urgers	-6656
usting	-6657
▁FRISB	-6658
▁PHONE	-6659
▁Polar	-6660
▁futon	-6661
▁hooks	-6662
▁laund	-6663
▁licks	-6664
▁shell	-6665
▁swims	-6666
▁would	-6667
▁wrist	-6668
▁creepy	-6669
▁height	-6670
▁shaved	-6671
▁Workers	-6672
▁cramped	-6673
▁markers	-6674
▁monster	-6675
▁neutral	-6676
▁partial	-6677
▁patrons	-6678
▁peacock	-6679
▁pumpkin	-6680
▁readies	-6681
▁seafood	-6682
▁vanilla	-6683
▁Numerous	-6684
▁barriers	-6685
▁bouncing	-6686
▁handicap	-6687
▁spinning	-6688
▁Chocolate	-6689
▁appearing	-6690
▁available	-6691
UB	-6692
US	-6693
ACE	-6694
col	-6695
oro	-6696
pit	-6697
▁gn	-6698
iles	-6699
opes	-6700
ough	-6701
pine	-6702
rawn	-6703
rees	-6704
seat	-6705
ther	-6706
ucch	-6707
ugly	-6708
yees	-6709
▁dad	-6710
▁mur	-6711
▁ofa	-6712
bably	-6713
bbles	-6714
sized	-6715
tower	-6716
▁Back	-6717
▁HIGH	-6718
▁chin	-6719
▁vane	-6720
icking	-6721
▁TRUCK	-6722
▁UNDER	-6723
▁World	-6724
▁exerc	-6725
▁flash	-6726
▁lives	-6727
▁peeks	-6728
▁recre	-6729
▁subst	-6730
▁tourn	-6731
▁troph	-6732
athered	-6733
▁Cooked	-6734
▁burner	-6735
▁climbs	-6736
▁courts	-6737
▁fedora	-6738
▁refrid	-6739
▁sleigh	-6740
▁stormy	-6741
▁tanker	-6742
▁thread	-6743
▁trolly	-6744
zzarella	-6745
▁Seagull	-6746
▁burners	-6747
▁expanse	-6748
▁vendors	-6749
▁district	-6750
▁dragging	-6751
▁hundreds	-6752
▁removing	-6753
▁sparsely	-6754
▁captivity	-6755
▁positions	-6756
▁recording	-6757
▁conversing	-6758
▁instrument	-6759
▁tournament	-6760
▁contemporary	-6761
ALK	-6762
the	-6763
▁AL	-6764
▁SC	-6765
coat	-6766
ians	-6767
orth	-6768
quee	-6769
ties	-6770
▁dem	-6771
▁stu	-6772
antic	-6773
arded	-6774
fting	-6775
walks	-6776
▁BOAT	-6777
▁Bowl	-6778
▁FROM	-6779
▁Pres	-6780
▁gang	-6781
▁ipod	-6782
▁plun	-6783
▁stay	-6784
▁trot	-6785
▁vess	-6786
▁ways	-6787
undown	-6788
▁chews	-6789
▁colum	-6790
▁peach	-6791
▁remod	-6792
▁retro	-6793
▁scram	-6794
▁shine	-6795
▁windm	-6796
ucchini	-6797
▁Groups	-6798
▁casual	-6799
▁dozens	-6800
▁drapes	-6801
▁handed	-6802
▁hooded	-6803
▁huddle	-6804
▁import	-6805
▁moment	-6806
▁raquet	-6807
▁stereo	-6808
alloween	-6809
▁Olympic	-6810
▁ancient	-6811
▁florets	-6812
▁focused	-6813
▁hunched	-6814
▁scissor	-6815
▁sidecar	-6816
▁upwards	-6817
▁approach	-6818
▁charging	-6819
▁dropping	-6820
▁marching	-6821
▁architect	-6822
▁finishing	-6823
▁personnel	-6824
▁practices	-6825
▁renovated	-6826
▁delivering	-6827
▁mozzarella	-6828
▁reflective	-6829
▁workstation	-6830
hop	-6831
omy	-6832
rin	-6833
▁CD	-6834
▁SP	-6835
IRRO	-6836
eech	-6837
ream	-6838
rise	-6839
▁And	-6840
▁Squ	-6841
▁Toy	-6842
▁bib	-6843
▁bug	-6844
▁buy	-6845
▁inj	-6846
ELLOW	-6847
▁ANIM	-6848
▁FIRE	-6849
▁Wind	-6850
▁fine	-6851
▁garb	-6852
▁gift	-6853
▁mice	-6854
▁peak	-6855
▁pers	-6856
▁snap	-6857
▁spir	-6858
▁vine	-6859
▁LYING	-6860
▁South	-6861
▁might	-6862
▁ranch	-6863
▁reins	-6864
▁salon	-6865
▁solar	-6866
▁views	-6867
▁waste	-6868
▁WINDOW	-6869
▁YELLOW	-6870
▁beanie	-6871
▁cactus	-6872
▁destro	-6873
▁litter	-6874
▁ponies	-6875
▁spaces	-6876
▁speech	-6877
▁strips	-6878
▁ticket	-6879
structed	-6880
▁Variety	-6881
▁bandana	-6882
▁baseman	-6883
▁complex	-6884
▁concert	-6885
▁congreg	-6886
▁fencing	-6887
▁flowery	-6888
▁gadgets	-6889
▁numeral	-6890
▁propell	-6891
▁raining	-6892
▁wheelie	-6893
▁crawling	-6894
▁engaging	-6895
▁forehead	-6896
▁ornament	-6897
▁packaged	-6898
▁pressing	-6899
▁sections	-6900
▁settings	-6901
▁cityscape	-6902
▁currently	-6903
▁languages	-6904
▁overgrown	-6905
▁populated	-6906
▁businessman	-6907
▁handicapped	-6908
▁refridgerator	-6909
00	-6910
sk	-6911
ADY	-6912
ica	-6913
mes	-6914
sed	-6915
wor	-6916
▁Im	-6917
▁TE	-6918
ROWN	-6919
asts	-6920
entr	-6921
gram	-6922
hift	-6923
▁Cor	-6924
▁fet	-6925
▁lav	-6926
▁pud	-6927
IRROR	-6928
estic	-6929
orial	-6930
uters	-6931
▁Door	-6932
▁Rail	-6933
▁barb	-6934
▁caps	-6935
▁cole	-6936
▁idle	-6937
▁loft	-6938
▁mosa	-6939
▁pear	-6940
▁plum	-6941
▁poor	-6942
aneous	-6943
▁Baked	-6944
▁PLANE	-6945
▁Truck	-6946
▁activ	-6947
▁dense	-6948
▁guide	-6949
▁waist	-6950
▁warns	-6951
▁wired	-6952
erstate	-6953
▁ANIMAL	-6954
▁Motorc	-6955
▁ZEBRAS	-6956
▁breads	-6957
▁danger	-6958
▁poured	-6959
▁proper	-6960
▁salmon	-6961
▁sunlit	-6962
▁Outside	-6963
▁affixed	-6964
▁altered	-6965
▁carried	-6966
▁haircut	-6967
▁laundry	-6968
▁parrots	-6969
▁wildebe	-6970
autifully	-6971
▁Birthday	-6972
▁grooming	-6973
▁markings	-6974
▁slippers	-6975
▁standard	-6976
▁stuffing	-6977
▁sunshine	-6978
▁trekking	-6979
▁zucchini	-6980
▁conductor	-6981
▁flamingos	-6982
▁important	-6983
▁machinery	-6984
▁ornaments	-6985
▁plantains	-6986
▁reception	-6987
▁descending	-6988
▁vegetarian	-6989
▁compartments	-6990
▁instructions	-6991
oy	-6992
▁CO	-6993
▁DR	-6994
▁ni	-6995
anna	-6996
ello	-6997
▁COL	-6998
▁Din	-6999
▁Gri	-7000
▁San	-7001
▁fis	-7002
▁jew	-7003
▁urn	-7004
CHING	-7005
drawn	-7006
eline	-7007
fight	-7008
ictor	-7009
▁SLOP	-7010
▁bunt	-7011
▁film	-7012
▁gull	-7013
▁hoop	-7014
▁live	-7015
▁teac	-7016
▁teap	-7017
unging	-7018
▁cocon	-7019
▁exper	-7020
▁goble	-7021
▁queen	-7022
▁MIRROR	-7023
▁TAKING	-7024
▁awaits	-7025
▁buried	-7026
▁herded	-7027
▁levels	-7028
▁master	-7029
▁mosaic	-7030
▁nature	-7031
▁noodle	-7032
▁pencil	-7033
▁shells	-7034
▁struct	-7035
▁trails	-7036
▁banquet	-7037
▁bulldog	-7038
▁daisies	-7039
▁handled	-7040
▁utensil	-7041
▁concentr	-7042
▁foraging	-7043
▁parasail	-7044
▁probably	-7045
▁showroom	-7046
▁livestock	-7047
▁patiently	-7048
▁residence	-7049
▁calculator	-7050
▁consumption	-7051
▁marketplace	-7052
▁underground	-7053
VD	-7054
ah	-7055
of	-7056
vd	-7057
▁(	-7058
yal	-7059
▁Ca	-7060
▁Sl	-7061
▁du	-7062
▁et	-7063
aced	-7064
agie	-7065
tail	-7066
trak	-7067
▁BIG	-7068
▁BOW	-7069
▁Pit	-7070
iders	-7071
▁BIKE	-7072
▁Over	-7073
▁crab	-7074
▁elev	-7075
▁glow	-7076
▁roam	-7077
▁spec	-7078
▁ugly	-7079
▁vans	-7080
boards	-7081
market	-7082
umpled	-7083
▁FLOOR	-7084
▁barge	-7085
▁berry	-7086
▁fleet	-7087
▁grove	-7088
▁nasty	-7089
▁pokes	-7090
▁ripen	-7091
▁tails	-7092
▁wedge	-7093
▁Dozens	-7094
▁INSIDE	-7095
▁Single	-7096
▁bridle	-7097
▁cloths	-7098
▁diaper	-7099
▁filthy	-7100
▁ginger	-7101
▁needle	-7102
▁sesame	-7103
▁unders	-7104
▁packing	-7105
▁slanted	-7106
▁spewing	-7107
▁Somebody	-7108
▁blooming	-7109
▁cushions	-7110
▁depicted	-7111
▁downward	-7112
▁vertical	-7113
▁Halloween	-7114
▁carefully	-7115
▁croissant	-7116
▁flowering	-7117
▁makeshift	-7118
▁substance	-7119
▁peacefully	-7120
TH	-7121
ek	-7122
fy	-7123
si	-7124
ILL	-7125
▁Go	-7126
▁SW	-7127
▁ga	-7128
omas	-7129
play	-7130
▁Ang	-7131
▁COW	-7132
▁Umb	-7133
▁ann	-7134
▁gor	-7135
▁rap	-7136
ieces	-7137
inary	-7138
oring	-7139
▁Army	-7140
▁Boat	-7141
▁Sail	-7142
▁hamm	-7143
▁obsc	-7144
riotic	-7145
▁BROWN	-7146
▁China	-7147
▁Dough	-7148
▁Hands	-7149
▁added	-7150
▁bloss	-7151
▁camel	-7152
▁dairy	-7153
▁estab	-7154
▁linen	-7155
▁proce	-7156
▁scrub	-7157
▁teamm	-7158
▁yummy	-7159
ccupied	-7160
▁attach	-7161
▁blazer	-7162
▁cables	-7163
▁enough	-7164
▁fences	-7165
▁hoagie	-7166
▁squats	-7167
▁tossed	-7168
▁channel	-7169
▁charger	-7170
▁housing	-7171
▁instead	-7172
▁panoram	-7173
▁peaches	-7174
▁product	-7175
▁snowing	-7176
▁theater	-7177
▁trimmed	-7178
▁COMPUTER	-7179
▁Umbrella	-7180
▁biscuits	-7181
▁customer	-7182
▁grilling	-7183
▁landscap	-7184
▁silhouet	-7185
▁snuggled	-7186
▁crocheted	-7187
▁highchair	-7188
▁stockings	-7189
▁supermarket	-7190
IF	-7191
wa	-7192
ape	-7193
ham	-7194
nut	-7195
▁ME	-7196
amel	-7197
ckey	-7198
lift	-7199
rail	-7200
usky	-7201
▁BAB	-7202
▁rat	-7203
VERAL	-7204
ckled	-7205
▁SUIT	-7206
▁clip	-7207
▁eyed	-7208
▁fell	-7209
▁hash	-7210
▁lego	-7211
▁oxen	-7212
▁salt	-7213
▁suck	-7214
▁tier	-7215
arters	-7216
▁GOING	-7217
▁STUFF	-7218
▁chill	-7219
▁depar	-7220
▁lands	-7221
▁proud	-7222
▁rally	-7223
▁rooft	-7224
▁yacht	-7225
▁LITTLE	-7226
▁barber	-7227
▁hockey	-7228
▁iPhone	-7229
▁knacks	-7230
▁median	-7231
▁rapids	-7232
▁speaks	-7233
▁spring	-7234
▁stoves	-7235
occupied	-7236
▁FRISBEE	-7237
▁SEVERAL	-7238
▁boarded	-7239
▁cheeses	-7240
▁chinese	-7241
▁coaster	-7242
▁combing	-7243
▁deliver	-7244
▁flavors	-7245
▁peaking	-7246
▁headband	-7247
▁nuzzling	-7248
▁stylized	-7249
▁destroyed	-7250
▁household	-7251
▁sidewalks	-7252
▁weathered	-7253
▁headlights	-7254
▁overturned	-7255
▁structures	-7256
▁beautifully	-7257
▁architectural	-7258
Ex	-7259
TS	-7260
je	-7261
▁-	-7262
NER	-7263
ULL	-7264
erk	-7265
rab	-7266
▁DE	-7267
▁iv	-7268
shed	-7269
▁HOT	-7270
▁Pan	-7271
▁Row	-7272
arium	-7273
ented	-7274
ffice	-7275
icans	-7276
isted	-7277
oodle	-7278
▁BABY	-7279
▁Dirt	-7280
▁affe	-7281
▁amaz	-7282
▁crus	-7283
▁ding	-7284
▁lips	-7285
▁nine	-7286
▁took	-7287
bbling	-7288
▁AIRPL	-7289
▁Multi	-7290
▁Skate	-7291
▁broad	-7292
▁drizz	-7293
▁layed	-7294
▁packs	-7295
▁react	-7296
▁rhino	-7297
▁shack	-7298
▁sorts	-7299
▁toned	-7300
roadway	-7301
tenance	-7302
▁MOTORC	-7303
▁Square	-7304
▁aboard	-7305
▁alpine	-7306
▁blades	-7307
▁bubble	-7308
▁employ	-7309
▁taller	-7310
▁teapot	-7311
▁viewer	-7312
▁wander	-7313
▁worked	-7314
▁Doorway	-7315
▁Siamese	-7316
▁captive	-7317
▁clothed	-7318
▁columns	-7319
▁contact	-7320
▁halfway	-7321
▁leashes	-7322
▁lightly	-7323
▁lunging	-7324
▁signing	-7325
▁stylish	-7326
▁tattoos	-7327
▁Building	-7328
▁exterior	-7329
▁studying	-7330
▁Starbucks	-7331
▁intricate	-7332
▁motorboat	-7333
▁patriotic	-7334
▁political	-7335
▁activities	-7336
▁hamburgers	-7337
▁instructor	-7338
▁ornamental	-7339
▁contraption	-7340
rm	-7341
IES	-7342
ORE	-7343
not	-7344
vas	-7345
dock	-7346
epad	-7347
ihua	-7348
rier	-7349
ston	-7350
▁Fla	-7351
▁Met	-7352
▁cho	-7353
▁enc	-7354
▁kno	-7355
▁rig	-7356
▁ver	-7357
almat	-7358
irgin	-7359
orous	-7360
press	-7361
ratul	-7362
▁TREE	-7363
▁Well	-7364
▁cave	-7365
▁musc	-7366
▁scra	-7367
▁turb	-7368
flower	-7369
olding	-7370
▁Front	-7371
▁LIGHT	-7372
▁hides	-7373
▁mitts	-7374
▁murky	-7375
▁salsa	-7376
▁taste	-7377
▁teens	-7378
▁those	-7379
▁twent	-7380
▁wooly	-7381
▁woven	-7382
fficult	-7383
ihuahua	-7384
uggling	-7385
▁Public	-7386
▁attack	-7387
▁cranes	-7388
▁glider	-7389
▁pantry	-7390
▁pauses	-7391
▁server	-7392
▁stages	-7393
▁tosses	-7394
▁turtle	-7395
almatian	-7396
▁England	-7397
▁burrito	-7398
▁butcher	-7399
▁checker	-7400
▁docking	-7401
▁expired	-7402
▁pelican	-7403
▁preform	-7404
▁receive	-7405
▁Interior	-7406
▁Oriental	-7407
▁athletes	-7408
▁horizont	-7409
▁maintain	-7410
▁shooting	-7411
▁affection	-7412
▁establish	-7413
▁SKATEBOARD	-7414
po	-7415
AST	-7416
ICH	-7417
whe	-7418
▁RV	-7419
▁Wh	-7420
CEAN	-7421
lect	-7422
lica	-7423
meal	-7424
mers	-7425
▁DVD	-7426
▁Dri	-7427
▁OFF	-7428
▁Ref	-7429
▁oat	-7430
▁til	-7431
iforn	-7432
orted	-7433
othic	-7434
utter	-7435
▁BOWL	-7436
▁Busy	-7437
▁CARS	-7438
▁Cake	-7439
▁Cute	-7440
▁buds	-7441
▁conv	-7442
▁lant	-7443
▁nook	-7444
▁ping	-7445
▁rink	-7446
▁root	-7447
▁sell	-7448
ensive	-7449
lender	-7450
▁OCEAN	-7451
▁Those	-7452
▁brass	-7453
▁diced	-7454
▁fryer	-7455
▁grave	-7456
▁hello	-7457
▁marks	-7458
▁pretz	-7459
▁proje	-7460
▁sepia	-7461
▁strap	-7462
▁swamp	-7463
▁swift	-7464
▁therm	-7465
ifornia	-7466
▁Statue	-7467
▁TRACKS	-7468
▁Tables	-7469
▁browns	-7470
▁crowds	-7471
▁hearts	-7472
▁salads	-7473
▁sauerk	-7474
▁styles	-7475
▁unused	-7476
▁Bedroom	-7477
▁Players	-7478
▁casting	-7479
▁certain	-7480
▁fireman	-7481
▁hammock	-7482
▁observe	-7483
▁spreads	-7484
▁Bicycles	-7485
▁Broadway	-7486
▁Mountain	-7487
▁UMBRELLA	-7488
▁aquarium	-7489
▁backseat	-7490
▁boulders	-7491
▁changing	-7492
▁elevator	-7493
▁paneling	-7494
▁toilette	-7495
▁curiously	-7496
▁difficult	-7497
▁Electronic	-7498
▁Sandwiches	-7499
▁controlled	-7500
▁handlebars	-7501
▁interstate	-7502
▁recreational	-7503
IEW	-7504
IRT	-7505
The	-7506
aps	-7507
dry	-7508
ene	-7509
lor	-7510
HERE	-7511
aces	-7512
ards	-7513
auty	-7514
born	-7515
elve	-7516
▁tot	-7517
▁unt	-7518
▁wak	-7519
▁Cats	-7520
▁Suit	-7521
▁Vase	-7522
▁West	-7523
▁bone	-7524
▁cant	-7525
▁cris	-7526
▁find	-7527
▁fold	-7528
▁prey	-7529
▁wavy	-7530
ETHING	-7531
▁Roman	-7532
▁Tooth	-7533
▁bases	-7534
▁bring	-7535
▁broth	-7536
▁colla	-7537
▁crazy	-7538
▁greet	-7539
▁lefto	-7540
▁loves	-7541
▁motes	-7542
▁plank	-7543
▁races	-7544
inating	-7545
▁League	-7546
▁Pieces	-7547
▁arrive	-7548
▁column	-7549
▁entire	-7550
▁fairly	-7551
▁famous	-7552
▁frisby	-7553
▁gloomy	-7554
▁hammer	-7555
▁layers	-7556
▁misses	-7557
▁paying	-7558
▁quaint	-7559
▁sleepy	-7560
▁Pitcher	-7561
▁brushed	-7562
▁checked	-7563
▁divider	-7564
▁extreme	-7565
▁gathers	-7566
▁plunger	-7567
▁ribbons	-7568
▁rowboat	-7569
▁standup	-7570
▁wrought	-7571
▁Seagulls	-7572
▁animated	-7573
▁assembly	-7574
▁dangling	-7575
▁employee	-7576
▁modified	-7577
▁trailers	-7578
▁President	-7579
▁SOMETHING	-7580
▁blueberry	-7581
▁spreading	-7582
▁underside	-7583
▁MOTORCYCLE	-7584
▁clocktower	-7585
▁throughout	-7586
▁maintenance	-7587
▁surroundings	-7588
▁Skateboarders	-7589
▁demonstration	-7590
▁investigating	-7591
ELF	-7592
OTH	-7593
VES	-7594
cis	-7595
dog	-7596
kia	-7597
nas	-7598
tel	-7599
▁12	-7600
▁HE	-7601
▁LE	-7602
▁PC	-7603
WICH	-7604
cell	-7605
down	-7606
post	-7607
well	-7608
▁CON	-7609
▁Cut	-7610
▁Eld	-7611
▁ITS	-7612
▁hyd	-7613
▁tit	-7614
▁unb	-7615
▁ven	-7616
▁wid	-7617
iddle	-7618
iques	-7619
known	-7620
opard	-7621
▁Asia	-7622
▁Lego	-7623
▁Main	-7624
▁Mini	-7625
▁VIEW	-7626
▁beam	-7627
▁idly	-7628
▁rhin	-7629
▁sigh	-7630
▁tone	-7631
▁year	-7632
amsung	-7633
stract	-7634
ustral	-7635
▁Claus	-7636
▁THEIR	-7637
▁blade	-7638
▁combo	-7639
▁glaze	-7640
▁goers	-7641
▁jewel	-7642
▁laden	-7643
▁learn	-7644
▁tongs	-7645
▁whose	-7646
eburger	-7647
▁Amtrak	-7648
▁Father	-7649
▁boiled	-7650
▁coated	-7651
▁follow	-7652
▁kayaks	-7653
▁lifegu	-7654
▁lunges	-7655
▁magnet	-7656
▁models	-7657
▁poodle	-7658
▁protru	-7659
▁seeing	-7660
▁sleeve	-7661
▁stalks	-7662
▁Airport	-7663
▁Outdoor	-7664
▁groomed	-7665
▁minimal	-7666
▁paddock	-7667
▁rounded	-7668
▁SANDWICH	-7669
▁backside	-7670
▁bordered	-7671
▁ceilings	-7672
▁patterns	-7673
▁swimsuit	-7674
▁trotting	-7675
▁community	-7676
▁employees	-7677
▁playfully	-7678
▁streamers	-7679
▁wrestling	-7680
▁California	-7681
▁appetizers	-7682
▁eyeglasses	-7683
▁graduation	-7684
▁sauerkraut	-7685
mo	-7686
INE	-7687
OUR	-7688
net	-7689
▁zo	-7690
dale	-7691
oked	-7692
▁ATV	-7693
▁BOO	-7694
▁McD	-7695
▁RUN	-7696
▁ere	-7697
ances	-7698
clock	-7699
kiing	-7700
stick	-7701
▁Desk	-7702
▁Fran	-7703
▁Navy	-7704
▁Shot	-7705
▁arts	-7706
▁bake	-7707
▁bust	-7708
▁cabs	-7709
▁knot	-7710
▁peer	-7711
▁prof	-7712
▁safe	-7713
▁succ	-7714
▁sund	-7715
▁tack	-7716
ensely	-7717
filled	-7718
ifying	-7719
marine	-7720
roning	-7721
▁BANAN	-7722
▁Bowls	-7723
▁Bread	-7724
▁Image	-7725
▁Shirt	-7726
▁award	-7727
▁blank	-7728
▁brace	-7729
▁bushy	-7730
▁foamy	-7731
▁gifts	-7732
▁merch	-7733
▁novel	-7734
▁peels	-7735
▁scoop	-7736
▁shark	-7737
▁squee	-7738
▁sweep	-7739
▁wheat	-7740
▁wrong	-7741
▁COMING	-7742
▁Victor	-7743
▁canvas	-7744
▁juicer	-7745
▁laughs	-7746
▁preser	-7747
▁region	-7748
▁resemb	-7749
▁skelet	-7750
▁starts	-7751
▁states	-7752
▁SOMEONE	-7753
▁burgers	-7754
▁graphic	-7755
▁leopard	-7756
▁lighter	-7757
▁pitches	-7758
▁replica	-7759
▁unknown	-7760
▁brownies	-7761
▁leafless	-7762
▁maneuver	-7763
▁outdated	-7764
▁outhouse	-7765
▁quarters	-7766
▁recently	-7767
▁shepherd	-7768
▁triangle	-7769
▁partition	-7770
▁technolog	-7771
▁VEGETABLES	-7772
▁discussing	-7773
▁mechanical	-7774
▁newspapers	-7775
▁presenting	-7776
▁unoccupied	-7777
▁constructed	-7778
▁nightstands	-7779
▁perspective	-7780
▁Snowboarders	-7781
▁establishment	-7782
AZ	-7783
TO	-7784
ae	-7785
EEP	-7786
IND	-7787
REN	-7788
aul	-7789
rep	-7790
▁GU	-7791
▁OT	-7792
▁ti	-7793
itti	-7794
▁Bag	-7795
▁Bot	-7796
▁Bra	-7797
▁Kid	-7798
▁Que	-7799
▁Ser	-7800
▁age	-7801
▁lic	-7802
dryer	-7803
inton	-7804
onald	-7805
▁AREA	-7806
▁Chef	-7807
▁Farm	-7808
▁King	-7809
▁tell	-7810
icular	-7811
igious	-7812
▁India	-7813
▁Kreme	-7814
▁TOWER	-7815
▁abund	-7816
▁batch	-7817
▁coupe	-7818
▁fixed	-7819
▁grind	-7820
▁herds	-7821
▁hours	-7822
▁navig	-7823
▁parks	-7824
▁robes	-7825
▁staff	-7826
▁steal	-7827
▁twigs	-7828
▁vines	-7829
▁COUPLE	-7830
▁PLAYER	-7831
▁States	-7832
▁beauty	-7833
▁bitten	-7834
▁crumbs	-7835
▁crying	-7836
▁fellow	-7837
▁labels	-7838
▁launch	-7839
▁lizard	-7840
▁recipe	-7841
▁shears	-7842
▁shovel	-7843
▁spiral	-7844
▁wreath	-7845
▁Elderly	-7846
▁anticip	-7847
▁boating	-7848
▁caramel	-7849
▁feature	-7850
▁flanked	-7851
▁injured	-7852
▁ironing	-7853
▁jewelry	-7854
▁newborn	-7855
▁oatmeal	-7856
▁panting	-7857
▁rundown	-7858
▁AIRPLANE	-7859
▁alleyway	-7860
▁chatting	-7861
▁memorial	-7862
▁overalls	-7863
▁Something	-7864
▁airliners	-7865
▁companion	-7866
▁converted	-7867
▁groceries	-7868
▁meatballs	-7869
▁propellor	-7870
▁styrofoam	-7871
▁Photograph	-7872
▁projection	-7873
▁microphones	-7874
▁performance	-7875
▁cheeseburger	-7876
:2	-7877
ORT	-7878
acy	-7879
bil	-7880
atee	-7881
mble	-7882
unks	-7883
ustr	-7884
waii	-7885
▁Flo	-7886
▁Mus	-7887
▁Sub	-7888
▁ast	-7889
▁bud	-7890
▁gig	-7891
▁oar	-7892
▁veg	-7893
icles	-7894
monds	-7895
omber	-7896
uzzle	-7897
▁ORAN	-7898
▁Stud	-7899
▁WALL	-7900
▁What	-7901
▁Wine	-7902
▁able	-7903
▁effe	-7904
▁lock	-7905
▁mang	-7906
▁norm	-7907
▁pong	-7908
▁sunb	-7909
▁sure	-7910
▁vers	-7911
▁zomb	-7912
hicago	-7913
▁COUCH	-7914
▁FedEx	-7915
▁Hotel	-7916
▁OTHER	-7917
▁STAND	-7918
▁beads	-7919
▁blown	-7920
▁boxed	-7921
▁curls	-7922
▁demol	-7923
▁discs	-7924
▁fours	-7925
▁goofy	-7926
▁grate	-7927
▁husky	-7928
▁inner	-7929
▁invol	-7930
▁least	-7931
▁loose	-7932
▁mount	-7933
▁pleas	-7934
▁scall	-7935
▁soars	-7936
▁spraw	-7937
shopped	-7938
▁Corner	-7939
▁Dinner	-7940
▁Golden	-7941
▁Krispy	-7942
▁Market	-7943
▁conven	-7944
▁freely	-7945
▁stovet	-7946
▁trophy	-7947
▁tshirt	-7948
▁Austral	-7949
▁OUTSIDE	-7950
▁allowed	-7951
▁coaches	-7952
▁cottage	-7953
▁couples	-7954
▁hitched	-7955
▁program	-7956
▁repairs	-7957
▁swiftly	-7958
▁curbside	-7959
▁helmeted	-7960
▁operated	-7961
▁overlook	-7962
▁rearview	-7963
▁roasting	-7964
▁tricycle	-7965
cellaneous	-7966
▁firefight	-7967
▁lifeguard	-7968
▁releasing	-7969
▁revealing	-7970
▁scrambled	-7971
▁submarine	-7972
▁livingroom	-7973
▁navigating	-7974
▁pineapples	-7975
▁centerpiece	-7976
▁streetlights	-7977
▁participating	-7978
OC	-7979
ho	-7980
AMP	-7981
fri	-7982
rig	-7983
ued	-7984
▁11	-7985
▁CL	-7986
▁Li	-7987
▁Pe	-7988
▁Sa	-7989
▁Ur	-7990
ader	-7991
agle	-7992
ebox	-7993
held	-7994
pace	-7995
rair	-7996
uffs	-7997
▁Box	-7998
▁Mic	-7999
▁Rem	-8000
▁Vol	-8001
▁aer	-8002
▁alt	-8003
▁pac	-8004
▁yaw	-8005
AYING	-8006
NTAIN	-8007
ailer	-8008
lydes	-8009
organ	-8010
umber	-8011
▁ROAD	-8012
▁Rest	-8013
▁YARD	-8014
▁amen	-8015
▁coal	-8016
▁exha	-8017
▁last	-8018
▁mats	-8019
▁plac	-8020
▁seal	-8021
▁slal	-8022
venile	-8023
▁Ducks	-8024
▁beaks	-8025
▁bison	-8026
▁bloom	-8027
▁coral	-8028
▁drops	-8029
▁folks	-8030
▁melon	-8031
▁nails	-8032
▁neath	-8033
▁rapid	-8034
▁seper	-8035
▁think	-8036
▁visor	-8037
▁wants	-8038
▁yield	-8039
atively	-8040
▁Office	-8041
▁Teenag	-8042
▁booths	-8043
▁canned	-8044
▁facial	-8045
▁hurdle	-8046
▁looked	-8047
▁parlor	-8048
▁quiche	-8049
▁stroll	-8050
▁sweets	-8051
▁twenty	-8052
▁wedges	-8053
▁Chicago	-8054
▁SURFING	-8055
▁almonds	-8056
▁banners	-8057
▁bedside	-8058
▁details	-8059
▁flipped	-8060
▁forrest	-8061
▁messing	-8062
▁pancake	-8063
▁playful	-8064
▁varying	-8065
▁yawning	-8066
▁WATCHING	-8067
▁abstract	-8068
▁barbeque	-8069
▁buliding	-8070
▁gestures	-8071
▁indicate	-8072
▁peaceful	-8073
▁shearing	-8074
▁stovetop	-8075
▁windmill	-8076
▁kiteboard	-8077
▁oversized	-8078
▁retriever	-8079
▁seasoning	-8080
▁sunflower	-8081
▁surrounds	-8082
▁discussion	-8083
▁enthusiast	-8084
▁renovation	-8085
▁celebratory	-8086
DR	-8087
DY	-8088
▁u	-8089
SES	-8090
for	-8091
gle	-8092
las	-8093
zer	-8094
▁HY	-8095
▁Ne	-8096
▁mp	-8097
ison	-8098
long	-8099
ship	-8100
shot	-8101
weed	-8102
▁GUY	-8103
▁Sty	-8104
▁TRE	-8105
▁WOR	-8106
▁ank	-8107
▁cel	-8108
▁dre	-8109
▁pub	-8110
▁vel	-8111
ATION	-8112
avids	-8113
creen	-8114
ickey	-8115
osaur	-8116
scale	-8117
water	-8118
▁CELL	-8119
▁bits	-8120
▁frow	-8121
▁mark	-8122
▁monk	-8123
▁spen	-8124
▁whip	-8125
ETTING	-8126
rairie	-8127
tended	-8128
ulture	-8129
vender	-8130
▁Bunch	-8131
▁Nokia	-8132
▁cheek	-8133
▁fixes	-8134
▁mason	-8135
▁recei	-8136
avidson	-8137
raction	-8138
▁GROUND	-8139
▁Thomas	-8140
▁aprons	-8141
▁attend	-8142
▁burned	-8143
▁chunks	-8144
▁goatee	-8145
▁native	-8146
▁pilots	-8147
▁pinned	-8148
▁promin	-8149
▁remain	-8150
▁repres	-8151
▁uphill	-8152
▁vessel	-8153
vertible	-8154
▁bearing	-8155
▁brownie	-8156
▁coconut	-8157
▁directs	-8158
▁floored	-8159
▁intense	-8160
▁matches	-8161
▁peoples	-8162
▁popular	-8163
▁pudding	-8164
▁rooftop	-8165
▁saddled	-8166
▁snowman	-8167
▁sunrise	-8168
▁welcome	-8169
▁CHILDREN	-8170
▁Pictures	-8171
▁activity	-8172
▁contempl	-8173
▁diagonal	-8174
▁parasols	-8175
▁raincoat	-8176
▁seasoned	-8177
▁toddlers	-8178
▁Umbrellas	-8179
▁barricade	-8180
▁chihuahua	-8181
▁flatbread	-8182
▁locations	-8183
▁packaging	-8184
▁platforms	-8185
▁repairing	-8186
▁Individual	-8187
▁croissants	-8188
▁horizontal	-8189
▁preforming	-8190
▁controlling	-8191
▁kitchenette	-8192
▁$	-8193
aki	-8194
das	-8195
elt	-8196
unt	-8197
wag	-8198
▁18	-8199
▁Jo	-8200
stop	-8201
vish	-8202
▁CUT	-8203
▁Dun	-8204
▁Pat	-8205
▁Res	-8206
▁Sep	-8207
▁cob	-8208
▁cos	-8209
▁era	-8210
▁tol	-8211
▁unp	-8212
brant	-8213
cisco	-8214
ieval	-8215
works	-8216
▁Cola	-8217
▁LADY	-8218
▁Shel	-8219
▁Span	-8220
▁Time	-8221
▁cred	-8222
▁disp	-8223
▁gnar	-8224
▁lace	-8225
▁lazy	-8226
▁pars	-8227
allows	-8228
dering	-8229
▁Boxes	-8230
▁Every	-8231
▁Lunch	-8232
▁Pasta	-8233
▁SIGNS	-8234
▁TREES	-8235
▁Tower	-8236
▁bored	-8237
▁brocc	-8238
▁bundt	-8239
▁crash	-8240
▁denim	-8241
▁dolly	-8242
▁edges	-8243
▁given	-8244
▁gummy	-8245
▁masks	-8246
▁roped	-8247
▁ruler	-8248
▁score	-8249
▁shrub	-8250
▁tanks	-8251
▁whine	-8252
uttered	-8253
▁Boston	-8254
▁LAYING	-8255
▁childs	-8256
▁dollar	-8257
▁luxury	-8258
▁mantel	-8259
▁offers	-8260
▁pointy	-8261
▁rescue	-8262
▁tusked	-8263
▁Benches	-8264
▁cockpit	-8265
▁granola	-8266
▁hamster	-8267
▁handler	-8268
▁license	-8269
▁needles	-8270
▁patient	-8271
▁planted	-8272
▁sneaker	-8273
▁sprayed	-8274
▁tightly	-8275
▁western	-8276
▁Electric	-8277
▁cruising	-8278
▁dumpster	-8279
▁forehand	-8280
▁frowning	-8281
▁handling	-8282
▁juvenile	-8283
▁skeleton	-8284
▁Doughnuts	-8285
▁Suitcases	-8286
▁arranging	-8287
▁celebrate	-8288
▁congratul	-8289
▁glassware	-8290
▁hairdryer	-8291
▁religious	-8292
▁wonderful	-8293
▁workspace	-8294
▁attraction	-8295
▁convertible	-8296
GG	-8297
RA	-8298
EPT	-8299
ETS	-8300
ami	-8301
▁Ma	-8302
▁mm	-8303
NING	-8304
SING	-8305
igns	-8306
itol	-8307
vern	-8308
▁Orn	-8309
▁USA	-8310
▁amp	-8311
▁cyl	-8312
▁emo	-8313
▁occ	-8314
▁via	-8315
CTION	-8316
DRANT	-8317
acing	-8318
ander	-8319
iffel	-8320
inted	-8321
story	-8322
▁Dess	-8323
▁KEPT	-8324
▁Nine	-8325
▁VASE	-8326
▁Wall	-8327
▁badm	-8328
▁bark	-8329
▁bows	-8330
▁hugs	-8331
▁pins	-8332
▁scar	-8333
▁stro	-8334
▁tren	-8335
elines	-8336
ential	-8337
ometer	-8338
stairs	-8339
waiian	-8340
▁COLOR	-8341
▁Kitty	-8342
▁SHEEP	-8343
▁adorn	-8344
▁angel	-8345
▁await	-8346
▁bound	-8347
▁chick	-8348
▁dives	-8349
▁doily	-8350
▁drums	-8351
▁flour	-8352
▁leafs	-8353
▁sales	-8354
▁Cheese	-8355
▁Harley	-8356
▁better	-8357
▁concer	-8358
▁duffel	-8359
▁ferris	-8360
▁galley	-8361
▁icebox	-8362
▁mouses	-8363
▁movies	-8364
▁normal	-8365
▁purses	-8366
▁slalom	-8367
▁switch	-8368
▁tipped	-8369
▁velvet	-8370
attended	-8371
▁ANIMALS	-8372
▁Samsung	-8373
▁Spanish	-8374
▁Station	-8375
▁bundles	-8376
▁crochet	-8377
▁crooked	-8378
▁filming	-8379
▁minutes	-8380
▁nowhere	-8381
▁peanuts	-8382
▁stately	-8383
▁symbols	-8384
▁armchair	-8385
▁browsing	-8386
▁costumed	-8387
▁dinosaur	-8388
▁halfpipe	-8389
▁knitting	-8390
▁lavender	-8391
▁spanning	-8392
▁swimmers	-8393
▁Francisco	-8394
▁defensive	-8395
▁eachother	-8396
▁parachutes	-8397
▁parasailer	-8398
▁triangular	-8399
▁automobiles	-8400
▁silhouetted	-8401
▁socializing	-8402
▁wildflowers	-8403
▁Construction	-8404
▁Motorcyclists	-8405
▁photographing	-8406
:3	-8407
ADE	-8408
LES	-8409
asy	-8410
fth	-8411
iel	-8412
izz	-8413
rob	-8414
uss	-8415
▁BM	-8416
▁El	-8417
▁VW	-8418
gund	-8419
lesc	-8420
rack	-8421
rung	-8422
▁Few	-8423
▁Mer	-8424
▁exe	-8425
▁hoo	-8426
▁rub	-8427
gundy	-8428
ifier	-8429
igned	-8430
kswag	-8431
ously	-8432
rabic	-8433
▁Cent	-8434
▁Guys	-8435
▁Kite	-8436
▁LAPT	-8437
▁Line	-8438
▁Seat	-8439
▁TALL	-8440
▁WINE	-8441
▁choc	-8442
▁graf	-8443
▁laps	-8444
▁peop	-8445
▁prim	-8446
▁soil	-8447
▁stor	-8448
▁toll	-8449
▁whom	-8450
▁COUNT	-8451
▁Holly	-8452
▁WHILE	-8453
▁anten	-8454
▁dingy	-8455
▁flush	-8456
▁grows	-8457
▁misty	-8458
▁penny	-8459
▁rared	-8460
▁rugby	-8461
▁sodas	-8462
▁tells	-8463
▁wraps	-8464
itorium	-8465
▁Middle	-8466
▁Planes	-8467
▁School	-8468
▁Trucks	-8469
▁arches	-8470
▁battle	-8471
▁cannot	-8472
▁facade	-8473
▁guards	-8474
▁incred	-8475
▁lavish	-8476
▁linger	-8477
▁marshm	-8478
▁racers	-8479
▁ripped	-8480
▁tripod	-8481
▁waking	-8482
iversity	-8483
▁PARKING	-8484
▁cleaner	-8485
▁headset	-8486
▁prairie	-8487
▁siamese	-8488
▁testing	-8489
lydesdale	-8490
organized	-8491
▁MOUNTAIN	-8492
▁basement	-8493
▁burgundy	-8494
▁gigantic	-8495
▁handmade	-8496
▁loveseat	-8497
▁medieval	-8498
▁messages	-8499
▁numbered	-8500
▁sampling	-8501
▁sprawled	-8502
▁starring	-8503
▁Victorian	-8504
▁amenities	-8505
▁handstand	-8506
▁luxurious	-8507
▁receiving	-8508
▁searching	-8509
▁auditorium	-8510
▁demolished	-8511
▁mannequins	-8512
▁transported	-8513
▁miscellaneous	-8514
LY	-8515
No	-8516
au	-8517
ESS	-8518
dar	-8519
era	-8520
rio	-8521
yer	-8522
agna	-8523
foil	-8524
gate	-8525
iing	-8526
with	-8527
▁DOU	-8528
▁ren	-8529
bbled	-8530
▁Ford	-8531
▁Pots	-8532
▁Rain	-8533
▁Tree	-8534
▁chew	-8535
▁choo	-8536
▁crop	-8537
▁diff	-8538
▁flys	-8539
▁gras	-8540
▁host	-8541
▁iPod	-8542
▁jean	-8543
▁lids	-8544
▁mens	-8545
▁quar	-8546
▁reco	-8547
▁skim	-8548
▁slat	-8549
▁taco	-8550
▁tips	-8551
▁tots	-8552
▁viol	-8553
ptions	-8554
screen	-8555
urfing	-8556
▁Dirty	-8557
▁Queen	-8558
▁banks	-8559
▁beams	-8560
▁bento	-8561
▁dated	-8562
▁envel	-8563
▁globe	-8564
▁limbs	-8565
▁medal	-8566
▁tones	-8567
▁wades	-8568
dressed	-8569
▁Action	-8570
▁Coffee	-8571
▁Dunkin	-8572
▁adjust	-8573
▁aiming	-8574
▁always	-8575
▁announ	-8576
▁breaks	-8577
▁compon	-8578
▁contin	-8579
▁credit	-8580
▁detour	-8581
▁diners	-8582
▁knight	-8583
▁member	-8584
▁missed	-8585
▁onward	-8586
▁petted	-8587
▁stradd	-8588
▁twelve	-8589
▁womans	-8590
▁Display	-8591
▁Shelves	-8592
▁charter	-8593
▁cracker	-8594
▁dispens	-8595
▁donkeys	-8596
▁festive	-8597
▁hilltop	-8598
▁pecking	-8599
▁profile	-8600
▁protect	-8601
▁rooster	-8602
▁sailors	-8603
▁terrier	-8604
▁upscale	-8605
▁vibrant	-8606
▁casually	-8607
▁fighters	-8608
▁handrail	-8609
▁nibbling	-8610
▁observes	-8611
▁ordering	-8612
▁overview	-8613
▁planters	-8614
▁purchase	-8615
▁speckled	-8616
▁Shirtless	-8617
▁clustered	-8618
▁obstacles	-8619
▁ostriches	-8620
▁president	-8621
▁sidelines	-8622
▁stationed	-8623
▁grasslands	-8624
▁mattresses	-8625
:1	-8626
ex	-8627
KES	-8628
TER	-8629
UIT	-8630
ooh	-8631
umm	-8632
yon	-8633
▁dw	-8634
ROSS	-8635
blem	-8636
eing	-8637
gons	-8638
hern	-8639
heye	-8640
oped	-8641
uzzi	-8642
vice	-8643
west	-8644
▁BUN	-8645
▁COR	-8646
▁CUP	-8647
▁HIM	-8648
▁His	-8649
▁Sox	-8650
▁Top	-8651
▁awk	-8652
▁doc	-8653
▁fav	-8654
▁hig	-8655
▁raz	-8656
▁slo	-8657
OWERS	-8658
antly	-8659
close	-8660
eding	-8661
tened	-8662
ulent	-8663
▁Both	-8664
▁Down	-8665
▁FULL	-8666
▁Nice	-8667
▁Only	-8668
▁Tele	-8669
▁arid	-8670
▁diet	-8671
▁naps	-8672
▁pigs	-8673
▁ribs	-8674
▁sele	-8675
▁skew	-8676
acuzzi	-8677
capped	-8678
ressed	-8679
stered	-8680
▁ALONG	-8681
▁Sepia	-8682
▁booze	-8683
▁ditch	-8684
▁effic	-8685
▁embed	-8686
▁hatch	-8687
▁looms	-8688
▁motoc	-8689
▁puffy	-8690
▁royal	-8691
▁scaff	-8692
▁sings	-8693
▁swirl	-8694
▁tater	-8695
hydrant	-8696
unction	-8697
▁Silhou	-8698
▁adding	-8699
▁cliffs	-8700
▁eatery	-8701
▁gazebo	-8702
▁guides	-8703
▁iphone	-8704
▁manual	-8705
▁petals	-8706
▁satell	-8707
▁toliet	-8708
▁wagons	-8709
▁woolly	-8710
▁Freshly	-8711
▁HYDRANT	-8712
▁Toddler	-8713
▁address	-8714
▁arrives	-8715
▁awkward	-8716
▁century	-8717
▁circles	-8718
▁concept	-8719
▁feather	-8720
▁illustr	-8721
▁melting	-8722
▁ordered	-8723
▁parsley	-8724
▁patches	-8725
▁seaweed	-8726
▁teacher	-8727
▁Cupcakes	-8728
▁McDonald	-8729
▁exercise	-8730
▁inspects	-8731
▁munching	-8732
▁shutters	-8733
▁somebody	-8734
▁sprinkle	-8735
▁visiting	-8736
▁alcoholic	-8737
▁badminton	-8738
▁concerned	-8739
▁intensely	-8740
▁stairwell	-8741
▁Decorative	-8742
▁celebrates	-8743
▁technology	-8744
▁wildebeest	-8745
▁waterskiing	-8746
gh	-8747
ok	-8748
rd	-8749
AIL	-8750
ICK	-8751
ORS	-8752
UST	-8753
ief	-8754
ism	-8755
lue	-8756
rad	-8757
rom	-8758
ucc	-8759
▁AD	-8760
▁EN	-8761
▁MA	-8762
▁Rd	-8763
▁kh	-8764
HIND	-8765
RESS	-8766
WALK	-8767
esus	-8768
gien	-8769
pect	-8770
rang	-8771
uded	-8772
vard	-8773
▁BMW	-8774
▁Not	-8775
▁PIE	-8776
▁Pen	-8777
▁REF	-8778
▁Tom	-8779
▁etc	-8780
▁inn	-8781
▁ivy	-8782
▁sen	-8783
▁val	-8784
▁yak	-8785
bilia	-8786
ipher	-8787
posed	-8788
ppers	-8789
▁Bike	-8790
▁Dist	-8791
▁FOUR	-8792
▁Port	-8793
▁Rock	-8794
▁THEM	-8795
▁ages	-8796
▁coca	-8797
▁dips	-8798
▁dude	-8799
▁poll	-8800
▁secl	-8801
▁stab	-8802
▁tale	-8803
▁util	-8804
mingly	-8805
rapped	-8806
▁APPLE	-8807
▁CLOSE	-8808
▁House	-8809
▁Mouse	-8810
▁SLOPE	-8811
▁State	-8812
▁Their	-8813
▁Vases	-8814
▁allow	-8815
▁baker	-8816
▁cheer	-8817
▁delic	-8818
▁expla	-8819
▁focal	-8820
▁manic	-8821
▁plums	-8822
▁prist	-8823
▁rains	-8824
▁slats	-8825
▁snake	-8826
▁spect	-8827
▁tHERE	-8828
▁witha	-8829
▁BEHIND	-8830
▁France	-8831
▁beagle	-8832
▁creamy	-8833
▁fitted	-8834
▁german	-8835
▁gothic	-8836
▁grains	-8837
▁holing	-8838
▁memora	-8839
▁overfl	-8840
▁palace	-8841
▁panels	-8842
▁picket	-8843
▁placid	-8844
▁shakes	-8845
▁shield	-8846
▁sloped	-8847
▁temple	-8848
▁unpack	-8849
▁youths	-8850
▁Uniform	-8851
▁boulder	-8852
▁bubbles	-8853
▁bushels	-8854
▁crashed	-8855
▁crashes	-8856
▁infield	-8857
▁keeping	-8858
▁lobster	-8859
▁pockets	-8860
▁proudly	-8861
▁receipt	-8862
▁seaside	-8863
▁sipping	-8864
▁spilled	-8865
▁tilting	-8866
▁tinfoil	-8867
▁tissues	-8868
▁unident	-8869
▁Business	-8870
▁Hawaiian	-8871
▁altitude	-8872
▁blenders	-8873
▁combined	-8874
▁desolate	-8875
▁embedded	-8876
▁homeless	-8877
▁majestic	-8878
▁peripher	-8879
▁placemat	-8880
▁resemble	-8881
▁steaming	-8882
▁stocking	-8883
▁ELEPHANTS	-8884
▁abundance	-8885
▁automatic	-8886
▁dalmatian	-8887
▁departing	-8888
▁discarded	-8889
▁fireworks	-8890
▁interview	-8891
▁launching	-8892
▁panoramic	-8893
▁perfectly	-8894
▁riverbank	-8895
▁strolling	-8896
▁billboards	-8897
▁protruding	-8898
▁landscaping	-8899
▁memorabilia	-8900
▁restaurants	-8901
0.	-8902
LED	-8903
UGH	-8904
bla	-8905
erm	-8906
hor	-8907
osk	-8908
▁AS	-8909
▁ec	-8910
aled	-8911
arat	-8912
away	-8913
coln	-8914
igan	-8915
inis	-8916
ools	-8917
ourt	-8918
ubby	-8919
▁201	-8920
▁Ath	-8921
▁FEN	-8922
▁PRO	-8923
▁Pac	-8924
▁TUB	-8925
▁Win	-8926
▁gir	-8927
▁gum	-8928
▁isn	-8929
▁ord	-8930
ITING	-8931
ailed	-8932
ashed	-8933
berty	-8934
cedes	-8935
ecker	-8936
ernal	-8937
giene	-8938
paved	-8939
plant	-8940
▁BUSY	-8941
▁Book	-8942
▁Cell	-8943
▁Cont	-8944
▁Fans	-8945
▁KITE	-8946
▁Most	-8947
▁PASS	-8948
▁THRO	-8949
▁Town	-8950
▁Tran	-8951
▁aqua	-8952
▁bris	-8953
▁chip	-8954
▁date	-8955
▁disg	-8956
▁empt	-8957
▁fuel	-8958
▁pews	-8959
▁pops	-8960
▁song	-8961
ainted	-8962
iously	-8963
nished	-8964
ointed	-8965
opened	-8966
uisine	-8967
usband	-8968
▁Blond	-8969
▁FRUIT	-8970
▁Fancy	-8971
▁beets	-8972
▁build	-8973
▁clump	-8974
▁elbow	-8975
▁expos	-8976
▁flats	-8977
▁gazes	-8978
▁keeps	-8979
▁loads	-8980
▁moved	-8981
▁potty	-8982
▁razor	-8983
▁skill	-8984
▁BRIGHT	-8985
▁Bridge	-8986
▁Church	-8987
▁Eiffel	-8988
▁HORSES	-8989
▁admire	-8990
▁angles	-8991
▁artist	-8992
▁bloody	-8993
▁chases	-8994
▁collie	-8995
▁cooker	-8996
▁cotton	-8997
▁dispos	-8998
▁edible	-8999
▁linked	-9000
▁necess	-9001
▁nuzzle	-9002
▁outlet	-9003
▁pawing	-9004
▁reigns	-9005
▁rounds	-9006
▁source	-9007
▁sprays	-9008
▁sticky	-9009
▁trench	-9010
▁warmly	-9011
▁amazing	-9012
▁apparat	-9013
▁collect	-9014
▁cuddled	-9015
▁english	-9016
▁faucets	-9017
▁guitars	-9018
▁heating	-9019
▁infront	-9020
▁install	-9021
▁lasagna	-9022
▁mailbox	-9023
▁reveals	-9024
▁rushing	-9025
▁saucers	-9026
▁sheared	-9027
▁topless	-9028
▁uneaten	-9029
▁version	-9030
▁Personal	-9031
▁antiques	-9032
▁apparent	-9033
▁bandanna	-9034
▁cocktail	-9035
▁converse	-9036
▁creature	-9037
▁drawings	-9038
▁external	-9039
▁friendly	-9040
▁handheld	-9041
▁investig	-9042
▁juggling	-9043
▁lipstick	-9044
▁offering	-9045
▁pelicans	-9046
▁secluded	-9047
▁serviced	-9048
▁shipping	-9049
▁spending	-9050
▁workshop	-9051
▁Cluttered	-9052
▁Hollywood	-9053
▁assembled	-9054
▁countries	-9055
▁jetliners	-9056
▁notebooks	-9057
▁seemingly	-9058
▁Restaurant	-9059
▁chalkboard	-9060
▁congregate	-9061
▁formations	-9062
▁maintained	-9063
▁unattended	-9064
▁picturesque	-9065
▁concentrating	-9066
DS	-9067
KET	-9068
OME	-9069
bus	-9070
lad	-9071
nes	-9072
sty	-9073
▁AR	-9074
▁Lu	-9075
▁MO	-9076
Cola	-9077
Stop	-9078
aise	-9079
girl	-9080
gran	-9081
olph	-9082
onge	-9083
pens	-9084
▁CHE	-9085
▁DRI	-9086
▁Ent	-9087
▁Ret	-9088
▁Sim	-9089
▁Sky	-9090
▁TIE	-9091
▁ago	-9092
▁ans	-9093
▁lla	-9094
▁sam	-9095
▁saw	-9096
▁sed	-9097
▁spi	-9098
▁tap	-9099
AZING	-9100
elles	-9101
ooted	-9102
orite	-9103
storm	-9104
thora	-9105
▁Clot	-9106
▁Fish	-9107
▁LIKE	-9108
▁Post	-9109
▁colt	-9110
▁hips	-9111
▁inse	-9112
▁jala	-9113
▁nude	-9114
▁outc	-9115
▁sequ	-9116
▁shar	-9117
▁sitt	-9118
▁tins	-9119
▁wade	-9120
angled	-9121
asting	-9122
ension	-9123
mobile	-9124
ounted	-9125
rowave	-9126
▁Bench	-9127
▁Bikes	-9128
▁Drive	-9129
▁Hello	-9130
▁Sleep	-9131
▁Smoke	-9132
▁aerop	-9133
▁charm	-9134
▁chops	-9135
▁cider	-9136
▁crock	-9137
▁fatig	-9138
▁feild	-9139
▁glide	-9140
▁gulls	-9141
▁hound	-9142
▁kiosk	-9143
▁lapel	-9144
▁milks	-9145
▁moose	-9146
▁plans	-9147
▁pound	-9148
▁pumps	-9149
▁study	-9150
▁years	-9151
omegran	-9152
▁Africa	-9153
▁Closed	-9154
▁ORANGE	-9155
▁Ornate	-9156
▁POSING	-9157
▁Virgin	-9158
▁acting	-9159
▁cities	-9160
▁copper	-9161
▁dental	-9162
▁exting	-9163
▁fronts	-9164
▁guided	-9165
▁hearty	-9166
▁hungry	-9167
▁poorly	-9168
▁prints	-9169
▁sailor	-9170
▁scenes	-9171
▁sheeps	-9172
▁strung	-9173
▁violin	-9174
▁walker	-9175
▁weight	-9176
▁Chopped	-9177
▁FLOWERS	-9178
▁Grilled	-9179
▁THROUGH	-9180
▁antenna	-9181
▁balding	-9182
▁battery	-9183
▁breaded	-9184
▁eagerly	-9185
▁goblets	-9186
▁gorilla	-9187
▁jacuzzi	-9188
▁jalapen	-9189
▁jerseys	-9190
▁leaking	-9191
▁lecture	-9192
▁minivan	-9193
▁notepad	-9194
▁raisins	-9195
▁rumpled	-9196
▁skaters	-9197
▁slender	-9198
▁takeout	-9199
▁turkeys	-9200
▁Monument	-9201
▁avocados	-9202
▁collared	-9203
▁crafting	-9204
▁creating	-9205
▁emerging	-9206
▁families	-9207
▁favorite	-9208
▁gripping	-9209
▁leftover	-9210
▁occupied	-9211
▁onlooker	-9212
▁plethora	-9213
▁pristine	-9214
▁restored	-9215
▁spotless	-9216
▁unopened	-9217
▁wrappers	-9218
▁Teenagers	-9219
▁Uniformed	-9220
▁batteries	-9221
▁billowing	-9222
▁curtained	-9223
▁ducklings	-9224
▁rollerbla	-9225
▁streaming	-9226
▁temporary	-9227
▁advertises	-9228
▁attachment	-9229
▁completing	-9230
▁dispensers	-9231
▁procession	-9232
▁remodeling	-9233
▁suspenders	-9234
TY	-9235
ACT	-9236
CER	-9237
OOL	-9238
USH	-9239
▁HA	-9240
▁fr	-9241
▁py	-9242
atre	-9243
bike	-9244
cars	-9245
dish	-9246
hole	-9247
irst	-9248
iser	-9249
onda	-9250
oper	-9251
robe	-9252
ucky	-9253
▁BIC	-9254
▁CAN	-9255
▁HAT	-9256
▁Lab	-9257
▁Lin	-9258
▁POL	-9259
▁ash	-9260
▁did	-9261
▁flu	-9262
▁laz	-9263
▁ner	-9264
▁pam	-9265
▁sin	-9266
acked	-9267
brown	-9268
cream	-9269
happy	-9270
imney	-9271
plash	-9272
rador	-9273
veled	-9274
▁Coke	-9275
▁EACH	-9276
▁Even	-9277
▁Gate	-9278
▁Gray	-9279
▁Jack	-9280
▁LONG	-9281
▁Meal	-9282
▁Plaz	-9283
▁TRAY	-9284
▁days	-9285
▁dram	-9286
▁exec	-9287
▁hump	-9288
▁jail	-9289
▁larg	-9290
▁loll	-9291
▁lost	-9292
▁nets	-9293
▁orig	-9294
▁peep	-9295
▁prom	-9296
▁sche	-9297
▁tuna	-9298
▁want	-9299
▁weed	-9300
GROUND	-9301
ashore	-9302
isters	-9303
weight	-9304
▁BEING	-9305
▁Clean	-9306
▁DRESS	-9307
▁Grand	-9308
▁Slice	-9309
▁avoid	-9310
▁broom	-9311
▁chute	-9312
▁dolph	-9313
▁domed	-9314
▁drift	-9315
▁fired	-9316
▁heron	-9317
▁mayon	-9318
▁media	-9319
▁mossy	-9320
▁motif	-9321
▁nurse	-9322
▁overh	-9323
▁pavil	-9324
▁punch	-9325
▁shoot	-9326
▁venue	-9327
▁CORNER	-9328
▁Center	-9329
▁LAPTOP	-9330
▁Subway	-9331
▁binder	-9332
▁common	-9333
▁dreary	-9334
▁flames	-9335
▁parake	-9336
▁prices	-9337
▁rocket	-9338
▁shares	-9339
▁strand	-9340
▁tights	-9341
▁tiling	-9342
▁waiter	-9343
▁winery	-9344
changing	-9345
▁GRAZING	-9346
▁brussel	-9347
▁capture	-9348
▁cycling	-9349
▁exhaust	-9350
▁fixings	-9351
▁hygiene	-9352
▁mangoes	-9353
▁options	-9354
▁orchard	-9355
▁organiz	-9356
▁strikes	-9357
▁success	-9358
▁tagging	-9359
▁Davidson	-9360
▁Students	-9361
▁centered	-9362
▁confused	-9363
▁detailed	-9364
▁dressers	-9365
▁guarding	-9366
▁ornately	-9367
▁pepperon	-9368
▁pomegran	-9369
▁railings	-9370
▁seashore	-9371
▁sheering	-9372
▁skylight	-9373
▁antelopes	-9374
▁apparatus	-9375
▁attacking	-9376
▁attendant	-9377
▁coastline	-9378
▁dangerous	-9379
▁earphones	-9380
▁extinguis	-9381
▁longboard	-9382
▁motorists	-9383
▁rectangle	-9384
▁satellite	-9385
▁signaling	-9386
▁streetcar	-9387
▁BACKGROUND	-9388
▁cigarettes	-9389
▁overflowing	-9390
▁arrangements	-9391
▁demonstrating	-9392
HN	-9393
PS	-9394
uf	-9395
ANG	-9396
ald	-9397
cco	-9398
cer	-9399
ctu	-9400
ota	-9401
por	-9402
▁Av	-9403
▁Dr	-9404
▁FE	-9405
MENT	-9406
bear	-9407
dogs	-9408
ella	-9409
game	-9410
hawk	-9411
ilts	-9412
oppy	-9413
reek	-9414
▁Aut	-9415
▁BEA	-9416
▁Dad	-9417
▁Hum	-9418
▁KID	-9419
▁Loc	-9420
▁Per	-9421
▁bon	-9422
▁dvd	-9423
▁joy	-9424
▁jud	-9425
▁mad	-9426
▁neg	-9427
adies	-9428
asion	-9429
asted	-9430
cross	-9431
eeled	-9432
itors	-9433
uckoo	-9434
▁BOOK	-9435
▁DOGS	-9436
▁East	-9437
▁Flag	-9438
▁Pige	-9439
▁Rice	-9440
▁Scot	-9441
▁Twin	-9442
▁boar	-9443
▁brun	-9444
▁curl	-9445
▁ener	-9446
▁fond	-9447
▁guns	-9448
▁knif	-9449
▁lava	-9450
▁lets	-9451
▁mono	-9452
▁oars	-9453
▁once	-9454
▁tons	-9455
▁vict	-9456
▁wife	-9457
legged	-9458
trucks	-9459
usters	-9460
▁FENCE	-9461
▁Goats	-9462
▁North	-9463
▁Paris	-9464
▁Plaza	-9465
▁Swiss	-9466
▁Union	-9467
▁ZEBRA	-9468
▁acrob	-9469
▁canes	-9470
▁chase	-9471
▁chunk	-9472
▁explo	-9473
▁flame	-9474
▁gears	-9475
▁graff	-9476
▁inser	-9477
▁knobs	-9478
▁maybe	-9479
▁outer	-9480
▁pyram	-9481
▁ridge	-9482
▁spice	-9483
▁stark	-9484
▁uncom	-9485
sailing	-9486
uristic	-9487
▁Arabic	-9488
▁Compet	-9489
▁Flower	-9490
▁Mickey	-9491
▁Museum	-9492
▁adorns	-9493
▁angled	-9494
▁blindf	-9495
▁bomber	-9496
▁brings	-9497
▁duffle	-9498
▁flavor	-9499
▁hedges	-9500
▁lazily	-9501
▁modest	-9502
▁pliers	-9503
▁rivers	-9504
▁sample	-9505
▁scheme	-9506
▁senior	-9507
▁shaker	-9508
▁smokes	-9509
▁spider	-9510
▁straps	-9511
esturing	-9512
inations	-9513
▁Bottles	-9514
▁COUNTER	-9515
▁Plastic	-9516
▁Sitting	-9517
▁TALKING	-9518
▁chimney	-9519
▁cowboys	-9520
▁created	-9521
▁cuisine	-9522
▁doubled	-9523
▁fisheye	-9524
▁husband	-9525
▁jogging	-9526
▁netting	-9527
▁passage	-9528
▁privacy	-9529
▁quilted	-9530
▁related	-9531
▁remodel	-9532
▁Brightly	-9533
▁GIRAFFES	-9534
▁Someones	-9535
▁Sunlight	-9536
▁cheering	-9537
▁crowding	-9538
▁fatigues	-9539
▁finishes	-9540
▁kayaking	-9541
▁ordinary	-9542
▁penguins	-9543
▁pleasant	-9544
▁possible	-9545
▁provides	-9546
▁signpost	-9547
▁tattooed	-9548
▁Southwest	-9549
▁Vegetable	-9550
▁assisting	-9551
▁clutching	-9552
▁commuters	-9553
▁multitude	-9554
▁passanger	-9555
▁primitive	-9556
▁prominent	-9557
▁wakeboard	-9558
▁Clydesdale	-9559
▁Silhouette	-9560
▁Television	-9561
▁connecting	-9562
▁designated	-9563
▁exchanging	-9564
▁flatscreen	-9565
▁incredible	-9566
▁protesting	-9567
▁snowmobile	-9568
▁windsurfer	-9569
▁differently	-9570
▁elaborately	-9571
▁scaffolding	-9572
▁checkerboard	-9573
▁marshmallows	-9574
:5	-9575
ci	-9576
wr	-9577
▁X	-9578
ASH	-9579
FUL	-9580
IAN	-9581
RON	-9582
UTS	-9583
bur	-9584
isk	-9585
pse	-9586
▁Je	-9587
▁cd	-9588
▁gh	-9589
▁ir	-9590
APER	-9591
bles	-9592
blue	-9593
haps	-9594
irts	-9595
ites	-9596
show	-9597
▁Bud	-9598
▁Cas	-9599
▁DAY	-9600
▁Day	-9601
▁Set	-9602
▁bol	-9603
▁bru	-9604
▁cri	-9605
▁ink	-9606
▁lag	-9607
▁law	-9608
▁nun	-9609
▁vig	-9610
elled	-9611
going	-9612
imote	-9613
inals	-9614
odils	-9615
orean	-9616
ouses	-9617
plate	-9618
point	-9619
ridge	-9620
scent	-9621
toned	-9622
urred	-9623
▁Eggs	-9624
▁Fore	-9625
▁INTO	-9626
▁Shop	-9627
▁Sink	-9628
▁buoy	-9629
▁cape	-9630
▁danc	-9631
▁dawn	-9632
▁glue	-9633
▁heat	-9634
▁hipp	-9635
▁mint	-9636
▁nail	-9637
▁peek	-9638
▁pest	-9639
▁plug	-9640
▁rent	-9641
▁resp	-9642
▁sugg	-9643
▁swit	-9644
▁west	-9645
ARDING	-9646
ctuary	-9647
knacks	-9648
nasium	-9649
spring	-9650
tables	-9651
tiered	-9652
▁BEAUT	-9653
▁Books	-9654
▁Chefs	-9655
▁Fried	-9656
▁Piles	-9657
▁Round	-9658
▁SHIRT	-9659
▁Trees	-9660
▁aside	-9661
▁attic	-9662
▁broke	-9663
▁casts	-9664
▁chang	-9665
▁crisp	-9666
▁cubes	-9667
▁dummy	-9668
▁easel	-9669
▁fills	-9670
▁filth	-9671
▁hoses	-9672
▁judge	-9673
▁likes	-9674
▁maple	-9675
▁nunch	-9676
▁pamph	-9677
▁pause	-9678
▁showc	-9679
▁south	-9680
▁wares	-9681
▁whale	-9682
▁wrink	-9683
erature	-9684
▁Blonde	-9685
▁Crowds	-9686
▁Lights	-9687
▁Parked	-9688
▁Pepper	-9689
▁Remote	-9690
▁accent	-9691
▁accord	-9692
▁barred	-9693
▁basins	-9694
▁bought	-9695
▁bowtie	-9696
▁calmly	-9697
▁campus	-9698
▁chocol	-9699
▁chubby	-9700
▁damage	-9701
▁effect	-9702
▁embank	-9703
▁filmed	-9704
▁foodst	-9705
▁intent	-9706
▁london	-9707
▁needed	-9708
▁nurses	-9709
▁remove	-9710
▁rubble	-9711
▁slight	-9712
▁sliver	-9713
▁sponge	-9714
▁washes	-9715
▁whites	-9716
▁BICYCLE	-9717
▁article	-9718
▁central	-9719
▁cuddles	-9720
▁describ	-9721
▁lantern	-9722
▁pressed	-9723
▁reddish	-9724
▁thicket	-9725
▁thought	-9726
▁COLORFUL	-9727
▁Pancakes	-9728
▁Volkswag	-9729
▁eggplant	-9730
▁exposure	-9731
▁gazelles	-9732
▁lemonade	-9733
▁national	-9734
▁obscured	-9735
▁occasion	-9736
▁pacifier	-9737
▁pavilion	-9738
▁piercing	-9739
▁princess	-9740
▁reclines	-9741
▁surfaces	-9742
▁teammate	-9743
▁traveler	-9744
▁vacation	-9745
▁Delicious	-9746
▁bathrooms	-9747
▁birdhouse	-9748
▁bookcases	-9749
▁distorted	-9750
▁gesturing	-9751
▁gymnasium	-9752
▁projected	-9753
▁sanctuary	-9754
▁teammates	-9755
▁uncovered	-9756
▁apparently	-9757
▁components	-9758
▁interested	-9759
▁magnifying	-9760
▁pepperonis	-9761
▁vertically	-9762
▁Residential	-9763
▁photography	-9764
▁thermometer	-9765
▁extinguisher	-9766
5.	-9767
:4	-9768
RY	-9769
ax	-9770
sy	-9771
UGG	-9772
ata	-9773
fle	-9774
hen	-9775
uds	-9776
uly	-9777
xim	-9778
zed	-9779
▁".	-9780
▁50	-9781
▁Kn	-9782
▁LA	-9783
▁NO	-9784
▁UN	-9785
IFUL	-9786
acam	-9787
aler	-9788
aman	-9789
ason	-9790
atch	-9791
eria	-9792
hell	-9793
ivil	-9794
omer	-9795
outs	-9796
pard	-9797
teen	-9798
▁BAR	-9799
▁BOT	-9800
▁BOX	-9801
▁CAB	-9802
▁Cap	-9803
▁DIN	-9804
▁MID	-9805
▁SLE	-9806
▁Sal	-9807
▁adv	-9808
▁bee	-9809
▁gay	-9810
▁mul	-9811
▁peb	-9812
▁sip	-9813
OWING	-9814
about	-9815
force	-9816
ipper	-9817
naise	-9818
onial	-9819
ports	-9820
reeze	-9821
rical	-9822
ridor	-9823
tails	-9824
urely	-9825
▁Bags	-9826
▁COWS	-9827
▁Char	-9828
▁MEAT	-9829
▁Skii	-9830
▁WALK	-9831
▁adds	-9832
▁bulb	-9833
▁cube	-9834
▁evil	-9835
▁fasc	-9836
▁frol	-9837
▁hate	-9838
▁hope	-9839
▁isle	-9840
▁lugg	-9841
▁mayo	-9842
▁nick	-9843
▁rubs	-9844
▁ruff	-9845
▁sock	-9846
▁test	-9847
▁turf	-9848
▁went	-9849
estion	-9850
inated	-9851
loaded	-9852
▁BIRDS	-9853
▁Bears	-9854
▁Cargo	-9855
▁Pepsi	-9856
▁WOMEN	-9857
▁bales	-9858
▁calen	-9859
▁clips	-9860
▁coins	-9861
▁creme	-9862
▁delta	-9863
▁devel	-9864
▁dying	-9865
▁footp	-9866
▁grace	-9867
▁hauls	-9868
▁hydro	-9869
▁imple	-9870
▁lasso	-9871
▁legos	-9872
▁merry	-9873
▁peaks	-9874
▁pesto	-9875
▁plumb	-9876
▁rafts	-9877
▁sking	-9878
▁squad	-9879
▁uncut	-9880
▁zones	-9881
acamole	-9882
closure	-9883
▁CHAIRS	-9884
▁Jockey	-9885
▁Ladies	-9886
▁active	-9887
▁alcove	-9888
▁blouse	-9889
▁caring	-9890
▁create	-9891
▁cuckoo	-9892
▁cutout	-9893
▁dealer	-9894
▁depart	-9895
▁filing	-9896
▁floppy	-9897
▁goblet	-9898
▁gutter	-9899
▁hanged	-9900
▁highly	-9901
▁keeper	-9902
▁knifes	-9903
▁lagoon	-9904
▁latest	-9905
▁loaves	-9906
▁lotion	-9907
▁loving	-9908
▁manner	-9909
▁mature	-9910
▁melons	-9911
▁padded	-9912
▁reacts	-9913
▁signed	-9914
▁wrench	-9915
▁zombie	-9916
▁Dessert	-9917
▁GLASSES	-9918
▁Lincoln	-9919
▁Pacific	-9920
▁RUNNING	-9921
▁Statues	-9922
▁Vehicle	-9923
▁coastal	-9924
▁embrace	-9925
▁impress	-9926
▁inspect	-9927
▁plowing	-9928
▁quarter	-9929
▁statute	-9930
▁twisted	-9931
▁winning	-9932
▁Mercedes	-9933
▁SIDEWALK	-9934
▁captures	-9935
▁clapping	-9936
▁confined	-9937
▁corridor	-9938
▁drizzled	-9939
▁flashing	-9940
▁flushing	-9941
▁lingerie	-9942
▁perching	-9943
▁polished	-9944
▁pretzels	-9945
▁servings	-9946
▁shoppers	-9947
▁solitary	-9948
▁spilling	-9949
▁toasting	-9950
▁unloaded	-9951
▁upcoming	-9952
▁upstairs	-9953
▁BEAUTIFUL	-9954
▁Styrofoam	-9955
▁aeroplane	-9956
▁appetizer	-9957
▁autograph	-9958
▁baseballs	-9959
▁carpeting	-9960
▁hairbrush	-9961
▁manicured	-9962
▁offspring	-9963
▁remaining	-9964
▁resembles	-9965
▁speedboat	-9966
▁wineglass	-9967
▁additional	-9968
▁appetizing	-9969
▁chocolates	-9970
▁embankment	-9971
▁futuristic	-9972
▁mayonnaise	-9973
▁protecting	-9974
▁retrieving	-9975
▁underwater	-9976
▁convenience	-9977
▁surfboarder	-9978
▁destinations	-9979
▁entertaining	-9980
▁straightening	-9981
GI	-9982
hn	-9983
ARE	-9984
HIC	-9985
OUT	-9986
app	-9987
ida	-9988
jar	-9989
nam	-9990
uum	-9991
▁AM	-9992
▁Ab	-9993
▁Bi	-9994
▁Ge	-9995
▁LO	-9996
▁PR	-9997
▁SA	-9998
OUSE	-9999
PORT	-10000
alia	-10001
arel	-10002
erby	-10003
essy	-10004
face	-10005
isha	-10006
jump	-10007
keep	-10008
lery	-10009
mark	-10010
ocer	-10011
okes	-10012
omed	-10013
ound	-10014
wire	-10015
▁BES	-10016
▁CGI	-10017
▁Cro	-10018
▁Ham	-10019
▁MAR	-10020
▁Mod	-10021
▁PRE	-10022
▁REM	-10023
▁TED	-10024
▁WAY	-10025
▁ate	-10026
▁bod	-10027
▁ewe	-10028
▁gap	-10029
▁gon	-10030
▁ith	-10031
▁mam	-10032
▁wan	-10033
faced	-10034
lazed	-10035
riate	-10036
rints	-10037
ville	-10038
▁1950	-10039
▁Blvd	-10040
▁DOOR	-10041
▁KIDS	-10042
▁LUGG	-10043
▁Sold	-10044
▁ajar	-10045
▁bale	-10046
▁beet	-10047
▁bout	-10048
▁daff	-10049
▁dune	-10050
▁gaug	-10051
▁goog	-10052
▁grim	-10053
▁lick	-10054
▁pace	-10055
▁plus	-10056
▁tubs	-10057
▁unin	-10058
chment	-10059
etrack	-10060
▁BIKES	-10061
▁Bride	-10062
▁CROSS	-10063
▁Class	-10064
▁Darth	-10065
▁Flock	-10066
▁Jesus	-10067
▁LOOKS	-10068
▁MOUSE	-10069
▁Scene	-10070
▁Steam	-10071
▁Store	-10072
▁VEHIC	-10073
▁WAVES	-10074
▁allig	-10075
▁artis	-10076
▁badge	-10077
▁chess	-10078
▁citiz	-10079
▁coffe	-10080
▁crops	-10081
▁dread	-10082
▁dries	-10083
▁forty	-10084
▁ghost	-10085
▁girra	-10086
▁grins	-10087
▁khaki	-10088
▁newer	-10089
▁patty	-10090
▁pepsi	-10091
▁pouch	-10092
▁reser	-10093
▁scout	-10094
▁scrol	-10095
▁squin	-10096
▁surve	-10097
▁timer	-10098
▁tubes	-10099
▁width	-10100
▁wreck	-10101
▁Aerial	-10102
▁Clause	-10103
▁Native	-10104
▁bathed	-10105
▁chicks	-10106
▁closer	-10107
▁closes	-10108
▁crouch	-10109
▁decals	-10110
▁decent	-10111
▁doctor	-10112
▁emblem	-10113
▁lazing	-10114
▁lowers	-10115
▁marine	-10116
▁orders	-10117
▁packet	-10118
▁paints	-10119
▁rhinos	-10120
▁skiies	-10121
▁snowsh	-10122
▁spires	-10123
▁titled	-10124
▁turban	-10125
urnished	-10126
▁America	-10127
▁Baskets	-10128
▁DRIVING	-10129
▁WAITING	-10130
▁airshow	-10131
▁apparel	-10132
▁bridges	-10133
▁bucking	-10134
▁bulding	-10135
▁firemen	-10136
▁glaring	-10137
▁lowered	-10138
▁measure	-10139
▁organic	-10140
▁pinstri	-10141
▁rackett	-10142
▁records	-10143
▁reflect	-10144
▁samples	-10145
▁sloping	-10146
▁smashed	-10147
▁tangled	-10148
▁unpaved	-10149
▁updated	-10150
▁verdant	-10151
▁walnuts	-10152
eboarding	-10153
rigerator	-10154
▁Pastries	-10155
▁bringing	-10156
▁cordless	-10157
▁dripping	-10158
▁forklift	-10159
▁hipsters	-10160
▁lavatory	-10161
▁magnetic	-10162
▁mounting	-10163
▁pizzeria	-10164
▁plumbing	-10165
▁portions	-10166
▁rowboats	-10167
▁scooping	-10168
▁squatted	-10169
▁sweaters	-10170
▁Microwave	-10171
▁appointed	-10172
▁coverings	-10173
▁dollhouse	-10174
▁harnessed	-10175
▁maneuvers	-10176
▁motorcyle	-10177
▁parchment	-10178
▁protected	-10179
▁rendering	-10180
▁selecting	-10181
▁snowstorm	-10182
▁underpass	-10183
▁youngster	-10184
▁competitor	-10185
▁conditions	-10186
▁straddling	-10187
▁butterflies	-10188
▁description	-10189
▁disorganized	-10190
▁photoshopped	-10191
ob	-10192
ASA	-10193
COR	-10194
URN	-10195
VEN	-10196
agl	-10197
fer	-10198
ifi	-10199
ili	-10200
ita	-10201
kyo	-10202
mal	-10203
mit	-10204
nie	-10205
pot	-10206
war	-10207
▁HO	-10208
▁Po	-10209
▁UK	-10210
aign	-10211
alth	-10212
ario	-10213
aver	-10214
card	-10215
corn	-10216
erns	-10217
fish	-10218
horn	-10219
ickr	-10220
pend	-10221
quit	-10222
vine	-10223
▁App	-10224
▁BAG	-10225
▁EAT	-10226
▁Fer	-10227
▁HIT	-10228
▁May	-10229
▁Tan	-10230
▁Tex	-10231
▁Tim	-10232
▁arc	-10233
▁due	-10234
▁dut	-10235
▁hog	-10236
▁mim	-10237
▁oll	-10238
▁sta	-10239
▁tac	-10240
▁teh	-10241
▁tog	-10242
▁ves	-10243
ACKET	-10244
EPING	-10245
alent	-10246
geous	-10247
gical	-10248
innie	-10249
uette	-10250
▁ADUL	-10251
▁Cand	-10252
▁DOUG	-10253
▁Dire	-10254
▁Mich	-10255
▁PINK	-10256
▁Prep	-10257
▁Tiny	-10258
▁Wide	-10259
▁Will	-10260
▁brim	-10261
▁calz	-10262
▁capp	-10263
▁drab	-10264
▁joke	-10265
▁jour	-10266
▁leis	-10267
▁mist	-10268
▁oats	-10269
▁sick	-10270
▁smir	-10271
▁snoo	-10272
▁sons	-10273
ANGING	-10274
allery	-10275
aloupe	-10276
presso	-10277
seeing	-10278
shirts	-10279
spired	-10280
stones	-10281
tuffed	-10282
▁Clear	-10283
▁Giant	-10284
▁HOUSE	-10285
▁KITES	-10286
▁Mixed	-10287
▁PAPER	-10288
▁PLACE	-10289
▁Phill	-10290
▁Place	-10291
▁Stain	-10292
▁TEDDY	-10293
▁Vader	-10294
▁afric	-10295
▁alike	-10296
▁ankle	-10297
▁appre	-10298
▁audio	-10299
▁brake	-10300
▁breed	-10301
▁coord	-10302
▁corre	-10303
▁decal	-10304
▁doggy	-10305
▁drags	-10306
▁dunes	-10307
▁feast	-10308
▁ferns	-10309
▁flops	-10310
▁floss	-10311
▁grips	-10312
▁kiwis	-10313
▁march	-10314
▁moder	-10315
▁pedal	-10316
▁scape	-10317
▁scary	-10318
▁speak	-10319
▁stork	-10320
▁uphol	-10321
brushes	-10322
orously	-10323
pensive	-10324
venture	-10325
wrapped	-10326
▁BOTTLE	-10327
▁Chairs	-10328
▁Clocks	-10329
▁HAVING	-10330
▁Plated	-10331
▁SLOPES	-10332
▁Skiier	-10333
▁Towels	-10334
▁WOODEN	-10335
▁Winter	-10336
▁artich	-10337
▁assist	-10338
▁avenue	-10339
▁cellar	-10340
▁charge	-10341
▁cosmet	-10342
▁gauges	-10343
▁grated	-10344
▁heated	-10345
▁herder	-10346
▁humans	-10347
▁jumper	-10348
▁losing	-10349
▁nailed	-10350
▁pallet	-10351
▁supply	-10352
▁wilted	-10353
▁Central	-10354
▁Contain	-10355
▁Crowded	-10356
▁Glasses	-10357
▁Highway	-10358
▁Interse	-10359
▁STATION	-10360
▁Service	-10361
▁barking	-10362
▁begging	-10363
▁blossom	-10364
▁boiling	-10365
▁brother	-10366
▁bunched	-10367
▁doctors	-10368
▁examine	-10369
▁gallery	-10370
▁handful	-10371
▁monkeys	-10372
▁patties	-10373
▁pretzel	-10374
▁quietly	-10375
▁ripened	-10376
▁rotting	-10377
▁scarves	-10378
▁sleeves	-10379
▁stories	-10380
▁sucking	-10381
▁theatre	-10382
▁victory	-10383
▁vulture	-10384
▁Everyone	-10385
▁Homemade	-10386
▁Olympics	-10387
▁Overhead	-10388
▁SLEEPING	-10389
▁backward	-10390
▁blossoms	-10391
▁brunette	-10392
▁canopies	-10393
▁cardinal	-10394
▁earrings	-10395
▁engineer	-10396
▁espresso	-10397
▁fastened	-10398
▁grafitti	-10399
▁grasping	-10400
▁internet	-10401
▁preserve	-10402
▁strainer	-10403
▁sweeping	-10404
▁tractors	-10405
▁Australia	-10406
▁contained	-10407
▁daffodils	-10408
▁decorates	-10409
▁excitedly	-10410
▁racetrack	-10411
▁spectator	-10412
▁squirting	-10413
▁vegtables	-10414
▁Pedestrian	-10415
▁accessible	-10416
▁apartments	-10417
▁backsplash	-10418
▁cantaloupe	-10419
▁describing	-10420
▁foodstuffs	-10421
▁frolicking	-10422
▁implements	-10423
▁protection	-10424
▁roundabout	-10425
▁seasonings	-10426
▁conditioner	-10427
▁reflections	-10428
▁intersecting	-10429
▁contemplating	-10430
▁rollerblading	-10431
EY	-10432
SH	-10433
ba	-10434
ov	-10435
ANS	-10436
CLO	-10437
DLE	-10438
dri	-10439
eks	-10440
hib	-10441
ims	-10442
low	-10443
owl	-10444
sit	-10445
▁Hy	-10446
▁KN	-10447
▁Wi	-10448
▁eg	-10449
▁ev	-10450
▁od	-10451
CASE	-10452
ERED	-10453
ansa	-10454
ctar	-10455
etti	-10456
iate	-10457
iful	-10458
imon	-10459
inet	-10460
rily	-10461
rint	-10462
rium	-10463
scri	-10464
wash	-10465
weet	-10466
wich	-10467
zzas	-10468
▁CLE	-10469
▁COV	-10470
▁Dod	-10471
▁Ext	-10472
▁Hey	-10473
▁Ing	-10474
▁Ite	-10475
▁Mom	-10476
▁Odd	-10477
▁SOC	-10478
▁ZOO	-10479
▁add	-10480
▁alb	-10481
▁ave	-10482
▁eth	-10483
▁fra	-10484
▁mal	-10485
▁seg	-10486
▁sme	-10487
andas	-10488
chain	-10489
geles	-10490
omers	-10491
onies	-10492
orail	-10493
store	-10494
swing	-10495
upper	-10496
▁Card	-10497
▁DRIN	-10498
▁Huge	-10499
▁REST	-10500
▁Sony	-10501
▁Soup	-10502
▁armo	-10503
▁brid	-10504
▁camo	-10505
▁cash	-10506
▁fift	-10507
▁fits	-10508
▁font	-10509
▁herb	-10510
▁hike	-10511
▁hula	-10512
▁kale	-10513
▁requ	-10514
▁sack	-10515
▁scan	-10516
▁shin	-10517
▁silo	-10518
▁tart	-10519
▁toes	-10520
▁unke	-10521
▁virt	-10522
▁wien	-10523
andise	-10524
athing	-10525
formed	-10526
headed	-10527
inging	-10528
pected	-10529
shower	-10530
uccino	-10531
ussian	-10532
▁ELECT	-10533
▁GIRLS	-10534
▁Honda	-10535
▁Lufth	-10536
▁Messy	-10537
▁Ocean	-10538
▁River	-10539
▁SKIES	-10540
▁TOOTH	-10541
▁alter	-10542
▁badly	-10543
▁claws	-10544
▁drill	-10545
▁dwarf	-10546
▁embro	-10547
▁files	-10548
▁fudge	-10549
▁glare	-10550
▁grasp	-10551
▁guest	-10552
▁hiker	-10553
▁japan	-10554
▁joint	-10555
▁kimon	-10556
▁ladle	-10557
▁lions	-10558
▁manuf	-10559
▁menus	-10560
▁pages	-10561
▁parka	-10562
▁rifle	-10563
▁ruins	-10564
▁sands	-10565
▁sanit	-10566
▁sheer	-10567
▁swiss	-10568
▁trink	-10569
▁wipes	-10570
corated	-10571
▁BANANA	-10572
▁DOUGHN	-10573
▁MIDDLE	-10574
▁SOCCER	-10575
▁bodies	-10576
▁breeze	-10577
▁brushy	-10578
▁chests	-10579
▁ethnic	-10580
▁fisher	-10581
▁fourth	-10582
▁geomet	-10583
▁govern	-10584
▁handwr	-10585
▁hazard	-10586
▁health	-10587
▁higher	-10588
▁indian	-10589
▁insect	-10590
▁kisses	-10591
▁lollip	-10592
▁muzzle	-10593
▁nectar	-10594
▁paragl	-10595
▁penned	-10596
▁rested	-10597
▁shared	-10598
▁siding	-10599
▁skying	-10600
▁steers	-10601
▁target	-10602
▁teacup	-10603
▁untidy	-10604
▁AIRPORT	-10605
▁Angeles	-10606
▁BANANAS	-10607
▁GETTING	-10608
▁HANGING	-10609
▁Hotdogs	-10610
▁LUGGAGE	-10611
▁Pigeons	-10612
▁aligned	-10613
▁appreci	-10614
▁bikinis	-10615
▁blended	-10616
▁buggies	-10617
▁capitol	-10618
▁crammed	-10619
▁fondant	-10620
▁grounds	-10621
▁montage	-10622
▁perpend	-10623
▁pyramid	-10624
▁release	-10625
▁runners	-10626
▁session	-10627
▁sharpen	-10628
▁sheered	-10629
▁skewers	-10630
▁slatted	-10631
▁soaking	-10632
▁stables	-10633
▁touring	-10634
▁travers	-10635
▁unhappy	-10636
▁walkers	-10637
▁wrecked	-10638
upperware	-10639
▁Labrador	-10640
▁Railroad	-10641
▁accented	-10642
▁actively	-10643
▁anything	-10644
▁battered	-10645
▁bristles	-10646
▁calendar	-10647
▁coloring	-10648
▁conveyer	-10649
▁cookware	-10650
▁dividers	-10651
▁hangings	-10652
▁lanterns	-10653
▁lowering	-10654
▁luggages	-10655
▁lunchbox	-10656
▁monorail	-10657
▁observed	-10658
▁omelette	-10659
▁pretends	-10660
▁rhinocer	-10661
▁screened	-10662
▁steeples	-10663
▁textured	-10664
▁trimming	-10665
▁unpacked	-10666
▁Decorated	-10667
▁Lufthansa	-10668
▁accordion	-10669
▁cameraman	-10670
▁chairlift	-10671
▁condiment	-10672
▁cranberry	-10673
▁expensive	-10674
▁guacamole	-10675
▁jalapenos	-10676
▁motocross	-10677
▁performer	-10678
▁specialty	-10679
▁blackberry	-10680
▁disgusting	-10681
▁disposable	-10682
▁particular	-10683
▁showcasing	-10684
▁businessmen	-10685
▁firefighter	-10686
▁maneuvering	-10687
▁merchandise	-10688
▁overstuffed	-10689
▁Intersection	-10690
▁Toothbrushes	-10691
▁illustration	-10692
▁perpendicular	-10693
:0	-10694
FT	-10695
pm	-10696
▁x	-10697
OTE	-10698
ays	-10699
fry	-10700
wer	-10701
▁II	-10702
▁If	-10703
▁Qu	-10704
▁TI	-10705
ALLY	-10706
CLOS	-10707
ROWD	-10708
abby	-10709
ands	-10710
anke	-10711
bell	-10712
body	-10713
fted	-10714
inea	-10715
link	-10716
rine	-10717
rona	-10718
sail	-10719
type	-10720
ucas	-10721
ules	-10722
uted	-10723
wall	-10724
▁APP	-10725
▁Atl	-10726
▁Bay	-10727
▁Cam	-10728
▁DON	-10729
▁FUN	-10730
▁Hat	-10731
▁Hol	-10732
▁Key	-10733
▁Raw	-10734
▁Sea	-10735
▁TOY	-10736
▁cul	-10737
▁gel	-10738
▁our	-10739
▁rom	-10740
▁toe	-10741
▁wea	-10742
achsh	-10743
books	-10744
ended	-10745
inara	-10746
laged	-10747
laska	-10748
locks	-10749
mesan	-10750
otion	-10751
ounts	-10752
pened	-10753
riter	-10754
ucing	-10755
urfer	-10756
▁Beer	-10757
▁Bull	-10758
▁Bunk	-10759
▁Love	-10760
▁Nike	-10761
▁PLAT	-10762
▁RAMP	-10763
▁Wars	-10764
▁adjo	-10765
▁coup	-10766
▁dies	-10767
▁duct	-10768
▁feel	-10769
▁frit	-10770
▁gain	-10771
▁grid	-10772
▁heel	-10773
▁hers	-10774
▁hide	-10775
▁jous	-10776
▁jugs	-10777
▁mate	-10778
▁mule	-10779
▁penn	-10780
▁punk	-10781
▁ques	-10782
▁sees	-10783
▁solo	-10784
▁soon	-10785
▁vein	-10786
▁ward	-10787
▁yoga	-10788
rioles	-10789
tender	-10790
themed	-10791
uggles	-10792
utting	-10793
▁Great	-10794
▁Items	-10795
▁Metal	-10796
▁Royal	-10797
▁SWING	-10798
▁Texas	-10799
▁Tokyo	-10800
▁Trays	-10801
▁Under	-10802
▁based	-10803
▁birth	-10804
▁broch	-10805
▁cheet	-10806
▁civil	-10807
▁draft	-10808
▁engra	-10809
▁gondo	-10810
▁gross	-10811
▁refre	-10812
▁screw	-10813
▁simul	-10814
▁snout	-10815
▁spons	-10816
▁stood	-10817
▁tends	-10818
▁trump	-10819
matched	-10820
ripened	-10821
▁Glazed	-10822
▁Korean	-10823
▁Pizzas	-10824
▁SHOWER	-10825
▁bulldo	-10826
▁chased	-10827
▁choose	-10828
▁determ	-10829
▁filter	-10830
▁finely	-10831
▁gotten	-10832
▁hotels	-10833
▁jetway	-10834
▁lesson	-10835
▁lilies	-10836
▁mainly	-10837
▁marshy	-10838
▁mounds	-10839
▁pastel	-10840
▁picker	-10841
▁puzzle	-10842
▁recess	-10843
▁reveal	-10844
▁sealed	-10845
▁shelve	-10846
▁shoots	-10847
▁strang	-10848
▁straws	-10849
▁suited	-10850
▁sundae	-10851
▁swampy	-10852
▁tinted	-10853
▁unload	-10854
▁vacuum	-10855
▁watery	-10856
▁yachts	-10857
achshund	-10858
▁CUTTING	-10859
▁Clothes	-10860
▁Liberty	-10861
▁Roadway	-10862
▁Urinals	-10863
▁Windows	-10864
▁aggress	-10865
▁bounces	-10866
▁chopper	-10867
▁cobbled	-10868
▁crushed	-10869
▁curving	-10870
▁defaced	-10871
▁dropped	-10872
▁dumping	-10873
▁erected	-10874
▁fabrics	-10875
▁fronted	-10876
▁further	-10877
▁glassed	-10878
▁marbled	-10879
▁mexican	-10880
▁novelty	-10881
▁orchids	-10882
▁orderly	-10883
▁proceed	-10884
▁shopped	-10885
▁species	-10886
▁streams	-10887
▁sugared	-10888
▁swimmer	-10889
▁tuxedos	-10890
▁witting	-10891
▁Airliner	-10892
▁DRINKING	-10893
▁Sleeping	-10894
▁allowing	-10895
▁buttered	-10896
▁colander	-10897
▁colonial	-10898
▁confetti	-10899
▁contrast	-10900
▁creative	-10901
▁eighteen	-10902
▁filtered	-10903
▁flamingo	-10904
▁grinning	-10905
▁handlers	-10906
▁interest	-10907
▁inviting	-10908
▁keychain	-10909
▁marinara	-10910
▁muscular	-10911
▁nunchuck	-10912
▁overhang	-10913
▁panorama	-10914
▁parmesan	-10915
▁seperate	-10916
▁sequence	-10917
▁showcase	-10918
▁stations	-10919
▁tattered	-10920
▁teenaged	-10921
▁wheeling	-10922
▁Buildings	-10923
▁Miniature	-10924
▁Sailboats	-10925
▁Stainless	-10926
▁alligator	-10927
▁bookstore	-10928
▁crossroad	-10929
▁elegantly	-10930
▁forefront	-10931
▁generated	-10932
▁geometric	-10933
▁graveyard	-10934
▁officials	-10935
▁performed	-10936
▁raspberry	-10937
▁represent	-10938
▁sectioned	-10939
▁shredding	-10940
▁videogame	-10941
▁Containers	-10942
▁attendants	-10943
▁cappuccino	-10944
▁government	-10945
▁overweight	-10946
▁protesters	-10947
▁selections	-10948
▁separating	-10949
▁undergoing	-10950
▁Individuals	-10951
▁Ingredients	-10952
▁wineglasses	-10953
▁Refrigerator	-10954
▁doubledecker	-10955
▁firefighters	-10956
!"	-10957
",	-10958
,.	-10959
47	-10960
PP	-10961
QU	-10962
YP	-10963
lt	-10964
ALF	-10965
BLE	-10966
CES	-10967
Don	-10968
EAT	-10969
ESE	-10970
ISS	-10971
LIC	-10972
ORM	-10973
One	-10974
cel	-10975
iod	-10976
lot	-10977
ros	-10978
ulo	-10979
zes	-10980
▁"3	-10981
▁13	-10982
▁25	-10983
▁4-	-10984
▁AB	-10985
▁CE	-10986
▁Tv	-10987
▁bb	-10988
FFEE	-10989
ales	-10990
aroo	-10991
cans	-10992
coal	-10993
eral	-10994
eyed	-10995
flip	-10996
loaf	-10997
orry	-10998
otes	-10999
pose	-11000
real	-11001
sels	-11002
unte	-11003
zzle	-11004
▁Are	-11005
▁BAS	-11006
▁CUR	-11007
▁KEY	-11008
▁LAN	-11009
▁MET	-11010
▁Mad	-11011
▁Mat	-11012
▁Med	-11013
▁STO	-11014
▁Sav	-11015
▁Ter	-11016
▁Wal	-11017
▁alo	-11018
▁eff	-11019
▁ide	-11020
▁ina	-11021
▁lan	-11022
▁ply	-11023
▁sib	-11024
▁spa	-11025
ADING	-11026
AFFIC	-11027
RYING	-11028
agged	-11029
amaha	-11030
annah	-11031
cheon	-11032
color	-11033
ician	-11034
iency	-11035
ilded	-11036
iolet	-11037
orida	-11038
rison	-11039
undra	-11040
▁Bare	-11041
▁Bill	-11042
▁Chev	-11043
▁Dell	-11044
▁HEAD	-11045
▁HOME	-11046
▁John	-11047
▁Moto	-11048
▁NICE	-11049
▁Neat	-11050
▁Pain	-11051
▁Pick	-11052
▁Pooh	-11053
▁RAIL	-11054
▁THRE	-11055
▁Turn	-11056
▁aims	-11057
▁boom	-11058
▁copy	-11059
▁damp	-11060
▁dial	-11061
▁dyed	-11062
▁feta	-11063
▁flea	-11064
▁fris	-11065
▁hero	-11066
▁join	-11067
▁kang	-11068
▁knob	-11069
▁mart	-11070
▁mild	-11071
▁mout	-11072
▁nutr	-11073
▁outs	-11074
▁pred	-11075
▁rare	-11076
▁rich	-11077
▁scre	-11078
▁seap	-11079
▁shit	-11080
▁slim	-11081
▁slot	-11082
▁tend	-11083
▁thre	-11084
▁york	-11085
ackson	-11086
adilla	-11087
allets	-11088
araunt	-11089
friend	-11090
inders	-11091
itious	-11092
onalds	-11093
priate	-11094
skirts	-11095
tening	-11096
writer	-11097
▁Angry	-11098
▁BOATS	-11099
▁Brick	-11100
▁CROWD	-11101
▁Court	-11102
▁Dairy	-11103
▁Greek	-11104
▁HANDS	-11105
▁Mario	-11106
▁Panda	-11107
▁Paper	-11108
▁Piece	-11109
▁STORE	-11110
▁Trave	-11111
▁Yanke	-11112
▁aimed	-11113
▁anime	-11114
▁armor	-11115
▁daily	-11116
▁draws	-11117
▁fairy	-11118
▁hitch	-11119
▁impro	-11120
▁mache	-11121
▁manip	-11122
▁minor	-11123
▁nears	-11124
▁scare	-11125
▁slack	-11126
▁spare	-11127
▁spiky	-11128
▁spins	-11129
▁spool	-11130
▁tacos	-11131
▁thirt	-11132
▁torto	-11133
▁trade	-11134
▁unbut	-11135
▁units	-11136
lookers	-11137
through	-11138
▁Advert	-11139
▁Alaska	-11140
▁COFFEE	-11141
▁Dishes	-11142
▁Giants	-11143
▁Kitten	-11144
▁braces	-11145
▁bridal	-11146
▁canyon	-11147
▁cleans	-11148
▁county	-11149
▁diesel	-11150
▁disemb	-11151
▁easily	-11152
▁eclect	-11153
▁energy	-11154
▁engage	-11155
▁enters	-11156
▁expert	-11157
▁folder	-11158
▁frothy	-11159
▁growth	-11160
▁halter	-11161
▁halved	-11162
▁hikers	-11163
▁pandas	-11164
▁panini	-11165
▁period	-11166
▁planks	-11167
▁plowed	-11168
▁priest	-11169
▁prohib	-11170
▁rodent	-11171
▁rugged	-11172
▁skirts	-11173
▁stucco	-11174
▁sugary	-11175
▁territ	-11176
▁videos	-11177
▁wedged	-11178
▁Blurred	-11179
▁Dodgers	-11180
▁Express	-11181
▁Foreign	-11182
▁Macbook	-11183
▁TRAFFIC	-11184
▁Teenage	-11185
▁african	-11186
▁armoire	-11187
▁artisan	-11188
▁belongs	-11189
▁brought	-11190
▁bruised	-11191
▁butting	-11192
▁ceremon	-11193
▁chipped	-11194
▁choices	-11195
▁climate	-11196
▁closing	-11197
▁connect	-11198
▁garland	-11199
▁garment	-11200
▁hunting	-11201
▁muscles	-11202
▁popcorn	-11203
▁pretend	-11204
▁relaxed	-11205
▁shorter	-11206
▁skinned	-11207
▁sorting	-11208
▁teaches	-11209
▁totally	-11210
▁vessels	-11211
▁wanting	-11212
▁wintery	-11213
forcement	-11214
ification	-11215
▁Artistic	-11216
▁BOARDING	-11217
▁CARRYING	-11218
▁Polaroid	-11219
▁Soldiers	-11220
▁carvings	-11221
▁charcoal	-11222
▁clusters	-11223
▁consumed	-11224
▁cresting	-11225
▁dramatic	-11226
▁flapping	-11227
▁grounded	-11228
▁hydrogen	-11229
▁kangaroo	-11230
▁motorcyl	-11231
▁mousepad	-11232
▁movement	-11233
▁musician	-11234
▁ponytail	-11235
▁question	-11236
▁register	-11237
▁retrieve	-11238
▁snapshot	-11239
▁adventure	-11240
▁balconies	-11241
▁bicycling	-11242
▁childrens	-11243
▁cushioned	-11244
▁highlight	-11245
▁indicator	-11246
▁navigates	-11247
▁outskirts	-11248
▁paperback	-11249
▁socialize	-11250
▁switching	-11251
▁teddybear	-11252
▁unripened	-11253
▁Locomotive	-11254
▁Reflection	-11255
▁Surfboards	-11256
▁dealership	-11257
▁efficiency	-11258
▁evergreens	-11259
▁exhibition	-11260
▁explaining	-11261
▁firetrucks	-11262
▁rhinoceros	-11263
▁skillfully	-11264
▁telephones	-11265
▁typewriter	-11266
▁appropriate	-11267
▁attentively	-11268
▁parasailers	-11269
▁peripherals	-11270
▁sightseeing	-11271
▁upholstered	-11272
▁anticipation	-11273
▁artistically	-11274
▁concentrates	-11275
.,	-11276
0'	-11277
1.	-11278
AF	-11279
BS	-11280
vo	-11281
wl	-11282
▁#	-11283
:00	-11284
EEL	-11285
Mac	-11286
UCE	-11287
UGE	-11288
cam	-11289
cif	-11290
com	-11291
ena	-11292
eye	-11293
ffy	-11294
oph	-11295
ply	-11296
tic	-11297
tih	-11298
ubs	-11299
wth	-11300
▁Ce	-11301
▁Cr	-11302
▁DC	-11303
▁MP	-11304
amps	-11305
ange	-11306
atoo	-11307
chel	-11308
chie	-11309
crow	-11310
duce	-11311
erts	-11312
itam	-11313
lege	-11314
ords	-11315
phan	-11316
rene	-11317
▁Abo	-11318
▁Dan	-11319
▁End	-11320
▁GPS	-11321
▁Gar	-11322
▁Los	-11323
▁Maj	-11324
▁Oak	-11325
▁PUB	-11326
▁Sem	-11327
▁TOW	-11328
▁Tur	-11329
▁Wed	-11330
▁avo	-11331
▁cay	-11332
▁cds	-11333
▁dye	-11334
▁ful	-11335
▁hop	-11336
▁pea	-11337
▁pes	-11338
▁rag	-11339
▁wil	-11340
RONIC	-11341
aired	-11342
ality	-11343
ateur	-11344
chers	-11345
enger	-11346
goers	-11347
ichen	-11348
itter	-11349
toons	-11350
ulous	-11351
ushes	-11352
wined	-11353
▁Dude	-11354
▁Flat	-11355
▁Foot	-11356
▁HAIR	-11357
▁HUGE	-11358
▁Head	-11359
▁Lake	-11360
▁Lane	-11361
▁MADE	-11362
▁MANY	-11363
▁MESS	-11364
▁MacB	-11365
▁NASA	-11366
▁POST	-11367
▁Pile	-11368
▁ROCK	-11369
▁Rear	-11370
▁Saus	-11371
▁Viet	-11372
▁alot	-11373
▁bead	-11374
▁bold	-11375
▁buid	-11376
▁chal	-11377
▁chow	-11378
▁dism	-11379
▁huts	-11380
▁limo	-11381
▁loop	-11382
▁loos	-11383
▁pail	-11384
▁pics	-11385
▁skii	-11386
▁sole	-11387
▁stap	-11388
▁tand	-11389
▁urns	-11390
▁vaul	-11391
▁worm	-11392
▁wtih	-11393
ISSORS	-11394
OOKING	-11395
aphern	-11396
change	-11397
embers	-11398
flight	-11399
idered	-11400
ighter	-11401
izable	-11402
keeper	-11403
ongous	-11404
ooding	-11405
oodles	-11406
stride	-11407
▁BUNCH	-11408
▁DECOR	-11409
▁DOING	-11410
▁DRINK	-11411
▁First	-11412
▁MOUTH	-11413
▁PIECE	-11414
▁READY	-11415
▁STOVE	-11416
▁Scott	-11417
▁Stack	-11418
▁While	-11419
▁alien	-11420
▁armed	-11421
▁bills	-11422
▁birdc	-11423
▁calls	-11424
▁cents	-11425
▁comfy	-11426
▁curry	-11427
▁domin	-11428
▁erect	-11429
▁exact	-11430
▁glows	-11431
▁gnome	-11432
▁llama	-11433
▁never	-11434
▁often	-11435
▁paths	-11436
▁prior	-11437
▁quant	-11438
▁quote	-11439
▁sedan	-11440
▁shift	-11441
▁shorn	-11442
▁sling	-11443
▁spout	-11444
▁squid	-11445
▁stony	-11446
▁twirl	-11447
▁write	-11448
ifiable	-11449
▁Angels	-11450
▁Basket	-11451
▁Disney	-11452
▁ENCLOS	-11453
▁LIGHTS	-11454
▁Motion	-11455
▁Sports	-11456
▁Window	-11457
▁Yamaha	-11458
▁actual	-11459
▁allows	-11460
▁chilli	-11461
▁dandel	-11462
▁dipped	-11463
▁eleven	-11464
▁estate	-11465
▁europe	-11466
▁geisha	-11467
▁gently	-11468
▁gilded	-11469
▁giraff	-11470
▁gloved	-11471
▁greasy	-11472
▁joined	-11473
▁locker	-11474
▁longer	-11475
▁lumber	-11476
▁mingle	-11477
▁mitten	-11478
▁mohawk	-11479
▁occupy	-11480
▁peopel	-11481
▁potter	-11482
▁skulls	-11483
▁slacks	-11484
▁slicer	-11485
▁sloppy	-11486
▁summit	-11487
▁tapest	-11488
▁telesc	-11489
▁unison	-11490
▁wildly	-11491
iculated	-11492
standers	-11493
▁COVERED	-11494
▁Fighter	-11495
▁Jockeys	-11496
▁Russian	-11497
▁Shepard	-11498
▁Western	-11499
▁amounts	-11500
▁backing	-11501
▁bunting	-11502
▁causing	-11503
▁custard	-11504
▁entrees	-11505
▁gondola	-11506
▁goodies	-11507
▁heights	-11508
▁housebo	-11509
▁leashed	-11510
▁packets	-11511
▁partner	-11512
▁presses	-11513
▁saddles	-11514
▁shading	-11515
▁shadowy	-11516
▁shocked	-11517
▁smeared	-11518
▁terrace	-11519
▁turnips	-11520
▁virtual	-11521
▁wanders	-11522
▁yelling	-11523
▁National	-11524
▁Prepared	-11525
▁SCISSORS	-11526
▁SUITCASE	-11527
▁Savannah	-11528
▁Wildlife	-11529
▁attended	-11530
▁banister	-11531
▁bodysuit	-11532
▁campaign	-11533
▁darkness	-11534
▁descends	-11535
▁dirtbike	-11536
▁emitting	-11537
▁farmland	-11538
▁feasting	-11539
▁focusing	-11540
▁gorgeous	-11541
▁hairless	-11542
▁hardware	-11543
▁inverted	-11544
▁involved	-11545
▁junction	-11546
▁luncheon	-11547
▁meatloaf	-11548
▁navigate	-11549
▁passport	-11550
▁proceeds	-11551
▁recorder	-11552
▁returned	-11553
▁roosters	-11554
▁scallops	-11555
▁seaplane	-11556
▁snuggles	-11557
▁splashes	-11558
▁squadron	-11559
▁surgical	-11560
▁thinking	-11561
▁thorough	-11562
▁unpeeled	-11563
aphernalia	-11564
▁Onlookers	-11565
▁Policemen	-11566
▁SURFBOARD	-11567
▁Travelers	-11568
▁UMBRELLAS	-11569
▁attaching	-11570
▁bartender	-11571
▁confusing	-11572
▁delivered	-11573
▁gardening	-11574
▁patchwork	-11575
▁respected	-11576
▁snowshoes	-11577
▁strangely	-11578
▁tangerine	-11579
▁territory	-11580
▁tortillas	-11581
▁turbulent	-11582
▁waterside	-11583
▁windmills	-11584
▁ELECTRONIC	-11585
▁University	-11586
▁autographs	-11587
▁ceremonial	-11588
▁collecting	-11589
▁illuminate	-11590
▁landscaped	-11591
▁outfielder	-11592
▁overloaded	-11593
▁resembling	-11594
▁respective	-11595
▁restaraunt	-11596
▁suspension	-11597
▁toothpicks	-11598
▁vigorously	-11599
▁embroidered	-11600
▁enforcement	-11601
▁interviewed	-11602
▁mountaintop	-11603
▁storefronts	-11604
▁temperature	-11605
▁wildebeests	-11606
▁Motorcyclist	-11607
▁affectionate	-11608
▁anticipating	-11609
▁congregating	-11610
▁wakeboarding	-11611
▁paraphernalia	-11612
4.	-11613
AW	-11614
IZ	-11615
SP	-11616
St	-11617
TI	-11618
ik	-11619
ju	-11620
yd	-11621
AVE	-11622
ILY	-11623
RED	-11624
bas	-11625
ems	-11626
esy	-11627
fee	-11628
gar	-11629
gas	-11630
hip	-11631
irs	-11632
pas	-11633
uba	-11634
wed	-11635
wns	-11636
▁66	-11637
▁CR	-11638
▁Ed	-11639
▁Ho	-11640
▁Wa	-11641
▁oo	-11642
▁pc	-11643
▁rv	-11644
▁si	-11645
▁ya	-11646
IDGE	-11647
ONES	-11648
SELF	-11649
anas	-11650
asse	-11651
chet	-11652
edic	-11653
fort	-11654
ghan	-11655
gypt	-11656
hake	-11657
ials	-11658
lamp	-11659
lest	-11660
liam	-11661
ocks	-11662
olls	-11663
olor	-11664
oons	-11665
plit	-11666
rick	-11667
rigu	-11668
seen	-11669
sery	-11670
site	-11671
ulum	-11672
▁747	-11673
▁BRO	-11674
▁CDs	-11675
▁Cab	-11676
▁Cur	-11677
▁FAM	-11678
▁FRI	-11679
▁GAT	-11680
▁LIN	-11681
▁Mag	-11682
▁POT	-11683
▁Pet	-11684
▁Ski	-11685
▁TVs	-11686
▁Ult	-11687
▁ads	-11688
▁ale	-11689
▁bbq	-11690
▁elf	-11691
▁fox	-11692
▁gle	-11693
▁god	-11694
▁hyr	-11695
▁ken	-11696
▁mos	-11697
▁pun	-11698
▁uns	-11699
▁ups	-11700
▁won	-11701
ampoo	-11702
antas	-11703
aping	-11704
epads	-11705
hound	-11706
iment	-11707
isley	-11708
istor	-11709
rible	-11710
rolet	-11711
uffle	-11712
uplic	-11713
urant	-11714
usion	-11715
▁BOYS	-11716
▁Bund	-11717
▁Cust	-11718
▁Dead	-11719
▁From	-11720
▁Gour	-11721
▁HERD	-11722
▁HILL	-11723
▁LAND	-11724
▁LINE	-11725
▁Life	-11726
▁OVEN	-11727
▁PAST	-11728
▁Palm	-11729
▁RAIN	-11730
▁Semi	-11731
▁Stri	-11732
▁Team	-11733
▁Thai	-11734
▁Tray	-11735
▁WAVE	-11736
▁bann	-11737
▁bass	-11738
▁bees	-11739
▁bomb	-11740
▁born	-11741
▁clas	-11742
▁cove	-11743
▁crot	-11744
▁deal	-11745
▁defl	-11746
▁drag	-11747
▁expl	-11748
▁flus	-11749
▁fron	-11750
▁ging	-11751
▁iPad	-11752
▁ipad	-11753
▁isol	-11754
▁iwth	-11755
▁loom	-11756
▁mare	-11757
▁mode	-11758
▁paid	-11759
▁pate	-11760
▁plot	-11761
▁puff	-11762
▁rims	-11763
▁rods	-11764
▁scri	-11765
▁tote	-11766
▁unic	-11767
▁veil	-11768
antage	-11769
apered	-11770
assemb	-11771
athers	-11772
atures	-11773
gested	-11774
nesses	-11775
repair	-11776
sphere	-11777
ximity	-11778
▁ADULT	-11779
▁BOOKS	-11780
▁BRICK	-11781
▁Boule	-11782
▁CABIN	-11783
▁CARRI	-11784
▁Drink	-11785
▁Fuzzy	-11786
▁Model	-11787
▁NIGHT	-11788
▁Split	-11789
▁Stone	-11790
▁USING	-11791
▁Urban	-11792
▁WOODS	-11793
▁album	-11794
▁aloft	-11795
▁artif	-11796
▁bangs	-11797
▁blend	-11798
▁butts	-11799
▁canad	-11800
▁devil	-11801
▁ducky	-11802
▁egret	-11803
▁fires	-11804
▁forth	-11805
▁grits	-11806
▁innoc	-11807
▁ivory	-11808
▁juicy	-11809
▁laces	-11810
▁lakes	-11811
▁mates	-11812
▁means	-11813
▁monks	-11814
▁naval	-11815
▁prize	-11816
▁props	-11817
▁roofs	-11818
▁roots	-11819
▁satin	-11820
▁scrap	-11821
▁slush	-11822
▁smell	-11823
▁solid	-11824
▁tiara	-11825
▁towns	-11826
▁tramp	-11827
▁treed	-11828
▁widow	-11829
▁withe	-11830
▁wrote	-11831
ROUNDED	-11832
boarder	-11833
itating	-11834
mounted	-11835
ucasian	-11836
ughters	-11837
wheeler	-11838
▁APPLES	-11839
▁BESIDE	-11840
▁Calico	-11841
▁Castle	-11842
▁FAMILY	-11843
▁Fluffy	-11844
▁Narrow	-11845
▁PUBLIC	-11846
▁REMOTE	-11847
▁Sunset	-11848
▁Winnie	-11849
▁Worker	-11850
▁accept	-11851
▁anchor	-11852
▁ankles	-11853
▁blooms	-11854
▁chaise	-11855
▁clowns	-11856
▁corned	-11857
▁crucif	-11858
▁depict	-11859
▁detail	-11860
▁doggie	-11861
▁falcon	-11862
▁flyers	-11863
▁freeze	-11864
▁frolic	-11865
▁heeled	-11866
▁hoping	-11867
▁inscri	-11868
▁kimono	-11869
▁oblong	-11870
▁outcro	-11871
▁prison	-11872
▁proces	-11873
▁recogn	-11874
▁serene	-11875
▁sister	-11876
▁stilts	-11877
▁sunken	-11878
▁tandem	-11879
▁toiled	-11880
▁wheelb	-11881
▁writes	-11882
▁Another	-11883
▁Athlete	-11884
▁Bearded	-11885
▁Catcher	-11886
▁DRESSED	-11887
▁Freight	-11888
▁Jackson	-11889
▁Library	-11890
▁MacBook	-11891
▁Members	-11892
▁Orioles	-11893
▁Railway	-11894
▁Transit	-11895
▁angrily	-11896
▁armrest	-11897
▁arrived	-11898
▁calling	-11899
▁calzone	-11900
▁captain	-11901
▁changed	-11902
▁clement	-11903
▁clipped	-11904
▁content	-11905
▁cowgirl	-11906
▁delight	-11907
▁descend	-11908
▁diapers	-11909
▁dolphin	-11910
▁dusting	-11911
▁gushing	-11912
▁intrigu	-11913
▁knights	-11914
▁messily	-11915
▁nuzzles	-11916
▁offered	-11917
▁paisley	-11918
▁pausing	-11919
▁peeping	-11920
▁perhaps	-11921
▁pontoon	-11922
▁refresh	-11923
▁ruffled	-11924
▁rusting	-11925
▁satchel	-11926
▁scruffy	-11927
▁shakers	-11928
▁sparrow	-11929
▁spelled	-11930
▁staying	-11931
▁stemmed	-11932
▁stirred	-11933
▁strolls	-11934
▁subject	-11935
▁systems	-11936
▁thermos	-11937
▁unkempt	-11938
▁vaulted	-11939
▁zombies	-11940
▁Painting	-11941
▁Ultimate	-11942
▁blending	-11943
▁buidling	-11944
▁communic	-11945
▁creation	-11946
▁crumpled	-11947
▁deciding	-11948
▁eclectic	-11949
▁entryway	-11950
▁envelope	-11951
▁exciting	-11952
▁greenish	-11953
▁handsome	-11954
▁japanese	-11955
▁merchant	-11956
▁overhand	-11957
▁postcard	-11958
▁property	-11959
▁propping	-11960
▁shavings	-11961
▁sheepdog	-11962
▁shinning	-11963
▁squeezed	-11964
▁supports	-11965
▁surboard	-11966
▁thatched	-11967
▁trainers	-11968
▁trinkets	-11969
▁trophies	-11970
▁twisting	-11971
▁waitress	-11972
ernational	-11973
▁Boulevard	-11974
▁Chevrolet	-11975
▁Dalmatian	-11976
▁Partially	-11977
▁Pepperoni	-11978
▁acrobatic	-11979
▁attentive	-11980
▁automated	-11981
▁bulldozer	-11982
▁congested	-11983
▁dachshund	-11984
▁disrepair	-11985
▁headdress	-11986
▁humongous	-11987
▁inclosure	-11988
▁leftovers	-11989
▁leisurely	-11990
▁milkshake	-11991
▁opponents	-11992
▁outfitted	-11993
▁producing	-11994
▁protector	-11995
▁proximity	-11996
▁seriously	-11997
▁sparkling	-11998
▁terminals	-11999
▁Australian	-12000
▁Bicyclists	-12001
▁SURROUNDED	-12002
▁barricades	-12003
▁confection	-12004
▁exercising	-12005
▁flashlight	-12006
▁quesadilla	-12007
▁struggling	-12008
▁unbuttoned	-12009
▁underbrush	-12010
▁university	-12011
▁camouflaged	-12012
▁contrasting	-12013
▁enthusiasts	-12014
▁handwritten	-12015
▁instructing	-12016
▁intricately	-12017
▁necessities	-12018
▁transparent	-12019
▁cobblestones	-12020
▁professionals	-12021
▁identification	-12022
▁unidentifiable	-12023
▁congratulations	-12024
'.	-12025
,"	-12026
2.	-12027
BY	-12028
LI	-12029
MS	-12030
RU	-12031
hs	-12032
wh	-12033
ALS	-12034
DAY	-12035
DER	-12036
IME	-12037
ben	-12038
bra	-12039
dom	-12040
enc	-12041
epl	-12042
ett	-12043
fla	-12044
icy	-12045
lac	-12046
leg	-12047
lex	-12048
oci	-12049
ona	-12050
ste	-12051
ume	-12052
▁30	-12053
▁Du	-12054
▁Fo	-12055
▁Rh	-12056
▁au	-12057
▁ci	-12058
▁dv	-12059
▁ko	-12060
▁ok	-12061
CHED	-12062
INGS	-12063
ager	-12064
anks	-12065
atos	-12066
esan	-12067
hest	-12068
icin	-12069
inyl	-12070
izer	-12071
nish	-12072
oute	-12073
over	-12074
pool	-12075
sbee	-12076
stle	-12077
uous	-12078
▁197	-12079
▁ABO	-12080
▁Bel	-12081
▁Dom	-12082
▁Dra	-12083
▁Emp	-12084
▁Fil	-12085
▁Hel	-12086
▁Leg	-12087
▁PUR	-12088
▁Ple	-12089
▁Rue	-12090
▁Tax	-12091
▁ger	-12092
▁gna	-12093
▁hau	-12094
▁mmm	-12095
▁mut	-12096
▁nud	-12097
▁pup	-12098
▁rev	-12099
▁wih	-12100
▁zip	-12101
abled	-12102
altim	-12103
bones	-12104
boxes	-12105
elisk	-12106
esome	-12107
ester	-12108
horse	-12109
ilant	-12110
ircle	-12111
ombre	-12112
order	-12113
ovies	-12114
still	-12115
tache	-12116
tlers	-12117
ugula	-12118
▁BANK	-12119
▁Chop	-12120
▁JUST	-12121
▁MALE	-12122
▁Mont	-12123
▁PAIN	-12124
▁Pack	-12125
▁Parm	-12126
▁Prop	-12127
▁Prot	-12128
▁Ripe	-12129
▁Rust	-12130
▁SEAT	-12131
▁Sout	-12132
▁VEGG	-12133
▁With	-12134
▁ally	-12135
▁atmo	-12136
▁cork	-12137
▁deco	-12138
▁dove	-12139
▁duty	-12140
▁faux	-12141
▁foul	-12142
▁gaze	-12143
▁hoof	-12144
▁hydr	-12145
▁iMac	-12146
▁mash	-12147
▁phra	-12148
▁stit	-12149
▁stur	-12150
▁unto	-12151
▁wint	-12152
▁wolf	-12153
▁yaks	-12154
action	-12155
ansive	-12156
antily	-12157
ellent	-12158
footed	-12159
houses	-12160
imeter	-12161
irates	-12162
onally	-12163
placed	-12164
verage	-12165
▁1950'	-12166
▁ABOUT	-12167
▁BEARS	-12168
▁Donut	-12169
▁Enter	-12170
▁Heavy	-12171
▁Mirro	-12172
▁Roses	-12173
▁Route	-12174
▁ample	-12175
▁backg	-12176
▁bathe	-12177
▁bulbs	-12178
▁cause	-12179
▁chugs	-12180
▁combs	-12181
▁comic	-12182
▁crepe	-12183
▁crows	-12184
▁deplo	-12185
▁derby	-12186
▁fetch	-12187
▁finds	-12188
▁foyer	-12189
▁hover	-12190
▁icons	-12191
▁jetty	-12192
▁kraut	-12193
▁locks	-12194
▁logos	-12195
▁mango	-12196
▁meaty	-12197
▁mowed	-12198
▁mulch	-12199
▁ollie	-12200
▁piers	-12201
▁pills	-12202
▁plugs	-12203
▁ramen	-12204
▁saute	-12205
▁stamp	-12206
▁stirs	-12207
▁tasks	-12208
▁thigh	-12209
▁tours	-12210
▁treet	-12211
▁upset	-12212
▁vicin	-12213
▁vinyl	-12214
▁zooms	-12215
arkable	-12216
ctional	-12217
lescent	-12218
liament	-12219
ultural	-12220
western	-12221
▁BATTER	-12222
▁BOARDS	-12223
▁Baltim	-12224
▁Bikers	-12225
▁Broken	-12226
▁Ferris	-12227
▁Mobile	-12228
▁Number	-12229
▁Pastry	-12230
▁SCREEN	-12231
▁Series	-12232
▁angels	-12233
▁anyone	-12234
▁ashore	-12235
▁become	-12236
▁crispy	-12237
▁cuddle	-12238
▁distin	-12239
▁dusted	-12240
▁empire	-12241
▁escape	-12242
▁extend	-12243
▁fliers	-12244
▁grasps	-12245
▁hamper	-12246
▁hugged	-12247
▁inches	-12248
▁intert	-12249
▁mating	-12250
▁messed	-12251
▁notice	-12252
▁overly	-12253
▁pedals	-12254
▁puppet	-12255
▁report	-12256
▁roofed	-12257
▁search	-12258
▁shrine	-12259
▁simply	-12260
▁sombre	-12261
▁sprout	-12262
▁stains	-12263
▁streak	-12264
▁united	-12265
▁unseen	-12266
▁virgin	-12267
▁walkie	-12268
▁warmer	-12269
▁winged	-12270
uplicate	-12271
▁BEDROOM	-12272
▁Capitol	-12273
▁Classic	-12274
▁Florida	-12275
▁Gourmet	-12276
▁HIMSELF	-12277
▁PASSING	-12278
▁Produce	-12279
▁SHOWING	-12280
▁Seattle	-12281
▁WORKING	-12282
▁amateur	-12283
▁breasts	-12284
▁bumping	-12285
▁campers	-12286
▁cheetah	-12287
▁cleared	-12288
▁comical	-12289
▁compute	-12290
▁consist	-12291
▁corners	-12292
▁cricket	-12293
▁cruises	-12294
▁dancers	-12295
▁demonic	-12296
▁dinette	-12297
▁emptied	-12298
▁fitting	-12299
▁flashes	-12300
▁forming	-12301
▁griddle	-12302
▁housepl	-12303
▁ladders	-12304
▁listens	-12305
▁mansion	-12306
▁munches	-12307
▁nursery	-12308
▁obelisk	-12309
▁origami	-12310
▁pallets	-12311
▁panties	-12312
▁plywood	-12313
▁popping	-12314
▁powdery	-12315
▁quality	-12316
▁rafters	-12317
▁rafting	-12318
▁rapidly	-12319
▁removes	-12320
▁robotic	-12321
▁scratch	-12322
▁shampoo	-12323
▁springs	-12324
▁taxider	-12325
▁trestle	-12326
▁tugboat	-12327
▁visitor	-12328
▁volunte	-12329
assembled	-12330
▁District	-12331
▁Keyboard	-12332
▁Parmesan	-12333
▁Shepherd	-12334
▁VEHICLES	-12335
▁artfully	-12336
▁articles	-12337
▁artifact	-12338
▁baguette	-12339
▁baseline	-12340
▁blacktop	-12341
▁blinders	-12342
▁cardigan	-12343
▁coconuts	-12344
▁cylinder	-12345
▁deflated	-12346
▁document	-12347
▁domestic	-12348
▁engraved	-12349
▁flooding	-12350
▁graphics	-12351
▁icecream	-12352
▁inspired	-12353
▁isolated	-12354
▁labelled	-12355
▁neckties	-12356
▁operates	-12357
▁payphone	-12358
▁peacocks	-12359
▁properly	-12360
▁readying	-12361
▁repaired	-12362
▁saluting	-12363
▁snoozing	-12364
▁sparkler	-12365
▁specific	-12366
▁spoonful	-12367
▁surprise	-12368
▁trolleys	-12369
▁vicinity	-12370
▁vultures	-12371
▁windowed	-12372
▁wrinkled	-12373
▁Baltimore	-12374
▁Computers	-12375
▁adjoining	-12376
▁anchovies	-12377
▁awkwardly	-12378
▁bracelets	-12379
▁canisters	-12380
▁contrails	-12381
▁crumbling	-12382
▁daughters	-12383
▁dumplings	-12384
▁expansive	-12385
▁exploring	-12386
▁extension	-12387
▁graduates	-12388
▁graffitti	-12389
▁guardrail	-12390
▁harnesses	-12391
▁headlight	-12392
▁involving	-12393
▁kickstand	-12394
▁moustache	-12395
▁mouthwash	-12396
▁necklaces	-12397
▁pamphlets	-12398
▁parakeets	-12399
▁pedestals	-12400
▁pinstripe	-12401
▁potential	-12402
▁resturant	-12403
▁scratches	-12404
▁shattered	-12405
▁squinting	-12406
▁unusually	-12407
▁atmosphere	-12408
▁campground	-12409
▁connection	-12410
▁dreadlocks	-12411
▁impressive	-12412
▁mismatched	-12413
▁nutritious	-12414
▁performers	-12415
▁processing	-12416
▁remarkable	-12417
▁sunbathing	-12418
▁supporting	-12419
▁transports	-12420
▁youngsters	-12421
▁blindfolded	-12422
▁observation	-12423
▁pomegranate	-12424
▁silhouettes	-12425
▁wheelbarrow	-12426
▁Multicolored	-12427
▁investigates	-12428
▁International	-12429
▁photographers	-12430
3.	-12431
9.	-12432
MP	-12433
cd	-12434
hi	-12435
uv	-12436
zu	-12437
▁q	-12438
ARM	-12439
ENG	-12440
IST	-12441
PED	-12442
TED	-12443
ank	-12444
bug	-12445
cle	-12446
gae	-12447
ila	-12448
iut	-12449
oly	-12450
pad	-12451
pod	-12452
ror	-12453
spe	-12454
ssy	-12455
uer	-12456
uet	-12457
usc	-12458
▁34	-12459
▁Ap	-12460
▁EY	-12461
▁ID	-12462
▁ML	-12463
▁SO	-12464
AGES	-12465
OUND	-12466
READ	-12467
acle	-12468
aven	-12469
boys	-12470
enth	-12471
free	-12472
hent	-12473
inar	-12474
inks	-12475
ista	-12476
nets	-12477
ouis	-12478
rami	-12479
rank	-12480
rell	-12481
riff	-12482
shop	-12483
tips	-12484
uing	-12485
umpy	-12486
urst	-12487
▁ATM	-12488
▁ATT	-12489
▁Ari	-12490
▁Bul	-12491
▁CAM	-12492
▁DEN	-12493
▁Dep	-12494
▁FRE	-12495
▁How	-12496
▁MIC	-12497
▁Mas	-12498
▁Nut	-12499
▁PAT	-12500
▁PER	-12501
▁PUT	-12502
▁Pad	-12503
▁Pal	-12504
▁RES	-12505
▁SER	-12506
▁SPE	-12507
▁Whe	-12508
▁Zoo	-12509
▁aid	-12510
▁atv	-12511
▁dus	-12512
▁elk	-12513
▁lei	-12514
▁lik	-12515
▁rin	-12516
▁tvs	-12517
▁why	-12518
▁wiz	-12519
PLIAN	-12520
arest	-12521
attan	-12522
bench	-12523
dging	-12524
dulum	-12525
icked	-12526
iners	-12527
lands	-12528
oleum	-12529
oline	-12530
otted	-12531
ourse	-12532
quito	-12533
usten	-12534
violi	-12535
▁Ball	-12536
▁Budd	-12537
▁Bush	-12538
▁CLOU	-12539
▁Cook	-12540
▁Eliz	-12541
▁Free	-12542
▁Good	-12543
▁Guit	-12544
▁Hill	-12545
▁Jets	-12546
▁LAMP	-12547
▁Left	-12548
▁MEAL	-12549
▁Miss	-12550
▁PAIR	-12551
▁Pano	-12552
▁Paul	-12553
▁SHOT	-12554
▁TELE	-12555
▁Trio	-12556
▁WILD	-12557
▁Walk	-12558
▁Year	-12559
▁anti	-12560
▁carc	-12561
▁caut	-12562
▁curi	-12563
▁dear	-12564
▁dive	-12565
▁dren	-12566
▁dvds	-12567
▁exce	-12568
▁fanc	-12569
▁fort	-12570
▁grip	-12571
▁init	-12572
▁ital	-12573
▁latt	-12574
▁lily	-12575
▁mani	-12576
▁mile	-12577
▁mock	-12578
▁poop	-12579
▁prec	-12580
▁rumm	-12581
▁sash	-12582
▁slam	-12583
▁task	-12584
▁tast	-12585
▁tint	-12586
▁tows	-12587
▁tumb	-12588
angles	-12589
etween	-12590
giving	-12591
handed	-12592
hentic	-12593
icolor	-12594
iquely	-12595
levard	-12596
loyees	-12597
nected	-12598
stools	-12599
vanced	-12600
▁BUSES	-12601
▁FRIEN	-12602
▁Lives	-12603
▁Louis	-12604
▁MESSY	-12605
▁Major	-12606
▁Metro	-12607
▁Offic	-12608
▁Saint	-12609
▁Sweet	-12610
▁THINK	-12611
▁Tiled	-12612
▁algae	-12613
▁artsy	-12614
▁bakes	-12615
▁corks	-12616
▁crabs	-12617
▁dedic	-12618
▁dials	-12619
▁exits	-12620
▁films	-12621
▁fling	-12622
▁funky	-12623
▁inlet	-12624
▁knelt	-12625
▁koala	-12626
▁miles	-12627
▁munch	-12628
▁obese	-12629
▁offer	-12630
▁pecks	-12631
▁peper	-12632
▁plump	-12633
▁prosc	-12634
▁reeds	-12635
▁rules	-12636
▁scuba	-12637
▁shawl	-12638
▁slate	-12639
▁stoop	-12640
▁tacks	-12641
▁tapes	-12642
▁texts	-12643
▁tilts	-12644
▁torso	-12645
▁tress	-12646
▁trots	-12647
▁truly	-12648
▁tucks	-12649
▁ultra	-12650
▁vivid	-12651
▁warms	-12652
▁whisk	-12653
issance	-12654
phanage	-12655
▁Busses	-12656
▁CHEESE	-12657
▁DINNER	-12658
▁Dining	-12659
▁Elabor	-12660
▁Parent	-12661
▁Picnic	-12662
▁Plants	-12663
▁Potted	-12664
▁Potter	-12665
▁RACKET	-12666
▁RUNWAY	-12667
▁Simple	-12668
▁Travel	-12669
▁arcade	-12670
▁asking	-12671
▁barbec	-12672
▁bowing	-12673
▁casing	-12674
▁catsup	-12675
▁choice	-12676
▁convoy	-12677
▁crotch	-12678
▁ferret	-12679
▁gallon	-12680
▁grater	-12681
▁grease	-12682
▁harves	-12683
▁krispy	-12684
▁learns	-12685
▁monoch	-12686
▁myster	-12687
▁orchid	-12688
▁plater	-12689
▁reader	-12690
▁retain	-12691
▁rowers	-12692
▁salami	-12693
▁scarfs	-12694
▁scoops	-12695
▁sittin	-12696
▁smoggy	-12697
▁splits	-12698
▁susten	-12699
▁taxing	-12700
▁topper	-12701
▁tranqu	-12702
▁tricky	-12703
▁tundra	-12704
▁waxing	-12705
▁wiener	-12706
almation	-12707
standing	-12708
▁APPLIAN	-12709
▁College	-12710
▁Commode	-12711
▁Fishing	-12712
▁HITTING	-12713
▁PLAYERS	-12714
▁Panoram	-12715
▁Protest	-12716
▁STUFFED	-12717
▁Vietnam	-12718
▁arugula	-12719
▁ascends	-12720
▁average	-12721
▁awesome	-12722
▁booster	-12723
▁challen	-12724
▁closest	-12725
▁crafted	-12726
▁creates	-12727
▁cropped	-12728
▁cruiser	-12729
▁cutlery	-12730
▁descent	-12731
▁dollars	-12732
▁drizzle	-12733
▁encased	-12734
▁enclose	-12735
▁flannel	-12736
▁girafee	-12737
▁macbook	-12738
▁mothers	-12739
▁nibbles	-12740
▁pensive	-12741
▁plating	-12742
▁praying	-12743
▁protein	-12744
▁rabbits	-12745
▁ravioli	-12746
▁rollers	-12747
▁scanner	-12748
▁science	-12749
▁secured	-12750
▁seminar	-12751
▁splayed	-12752
▁sprayer	-12753
▁streaks	-12754
▁technic	-12755
▁trained	-12756
▁tugging	-12757
▁weaving	-12758
▁website	-12759
▁whiskey	-12760
▁wiimote	-12761
ividually	-12762
▁CROSSING	-12763
▁Cyclists	-12764
▁Downhill	-12765
▁Families	-12766
▁Michigan	-12767
▁Mushroom	-12768
▁PICTURES	-12769
▁Standing	-12770
▁Tomatoes	-12771
▁actually	-12772
▁arranges	-12773
▁barbwire	-12774
▁bathrobe	-12775
▁birdcage	-12776
▁bracelet	-12777
▁bulletin	-12778
▁bustling	-12779
▁catering	-12780
▁charming	-12781
▁choosing	-12782
▁citizens	-12783
▁crucifix	-12784
▁delivers	-12785
▁deployed	-12786
▁designer	-12787
▁doorways	-12788
▁european	-12789
▁exchange	-12790
▁foothill	-12791
▁holidays	-12792
▁humorous	-12793
▁inserted	-12794
▁linoleum	-12795
▁oversize	-12796
▁pastrami	-12797
▁peddling	-12798
▁pendulum	-12799
▁released	-12800
▁stranded	-12801
▁suckling	-12802
▁tapestry	-12803
▁underway	-12804
▁uniquely	-12805
▁vineyard	-12806
▁Caucasian	-12807
▁Employees	-12808
▁advantage	-12809
▁broccolli	-12810
▁composite	-12811
▁consuming	-12812
▁documents	-12813
▁executing	-12814
▁fisherman	-12815
▁fountains	-12816
▁handlebar	-12817
▁houseboat	-12818
▁lightning	-12819
▁necessary	-12820
▁onlooking	-12821
▁orphanage	-12822
▁perimeter	-12823
▁plastered	-12824
▁portraits	-12825
▁providing	-12826
▁recycling	-12827
▁riverside	-12828
▁scarecrow	-12829
▁seperated	-12830
▁similarly	-12831
▁spotlight	-12832
▁struggles	-12833
▁urinating	-12834
▁yellowish	-12835
▁Volkswagen	-12836
▁briefcases	-12837
▁bystanders	-12838
▁carnations	-12839
▁diagonally	-12840
▁expressing	-12841
▁greenhouse	-12842
▁patrolling	-12843
▁possession	-12844
▁proceeding	-12845
▁profession	-12846
▁purchasing	-12847
▁sleeveless	-12848
▁successful	-12849
▁sustenance	-12850
▁traversing	-12851
▁attachments	-12852
▁chandeliers	-12853
▁clothesline	-12854
▁fascinating	-12855
▁firehydrant	-12856
▁highlighted	-12857
▁illuminates	-12858
▁investigate	-12859
▁outcropping	-12860
▁participate	-12861
▁wallpapered	-12862
▁wheelchairs	-12863
▁unidentified	-12864
▁affectionately	-12865
.;	-12866
AV	-12867
uk	-12868
yn	-12869
ARI	-12870
ETY	-12871
GES	-12872
IAL	-12873
ONS	-12874
YPD	-12875
ael	-12876
aes	-12877
bel	-12878
bye	-12879
deo	-12880
don	-12881
eng	-12882
gee	-12883
haw	-12884
iot	-12885
lie	-12886
lli	-12887
ove	-12888
sle	-12889
son	-12890
tee	-12891
tub	-12892
vag	-12893
▁"1	-12894
▁AC	-12895
▁KL	-12896
▁Ty	-12897
▁op	-12898
▁os	-12899
▁pf	-12900
▁ud	-12901
▁yo	-12902
ANTS	-12903
ATED	-12904
EARS	-12905
STOP	-12906
bing	-12907
cent	-12908
etro	-12909
ifth	-12910
init	-12911
ippy	-12912
ires	-12913
lace	-12914
lier	-12915
lock	-12916
mont	-12917
ques	-12918
size	-12919
vere	-12920
▁BLT	-12921
▁Bur	-12922
▁FEW	-12923
▁Las	-12924
▁MLB	-12925
▁Mal	-12926
▁Nic	-12927
▁PAS	-12928
▁Pel	-12929
▁Pre	-12930
▁Run	-12931
▁SEE	-12932
▁Sto	-12933
▁Ump	-12934
▁Ven	-12935
▁Why	-12936
▁ber	-12937
▁cad	-12938
▁cir	-12939
▁dan	-12940
▁foo	-12941
▁gam	-12942
▁hen	-12943
▁hil	-12944
▁hom	-12945
▁hon	-12946
▁lev	-12947
▁lur	-12948
▁pyl	-12949
▁spl	-12950
▁wis	-12951
ARING	-12952
IFORM	-12953
ILLED	-12954
abeth	-12955
ancou	-12956
anian	-12957
atter	-12958
bages	-12959
black	-12960
chief	-12961
ebook	-12962
iched	-12963
igers	-12964
irely	-12965
iutto	-12966
layer	-12967
level	-12968
maker	-12969
oting	-12970
plete	-12971
pting	-12972
rails	-12973
stool	-12974
ulate	-12975
usual	-12976
wered	-12977
▁Bald	-12978
▁Best	-12979
▁CASE	-12980
▁CONT	-12981
▁Coun	-12982
▁DIRT	-12983
▁DISH	-12984
▁DVDs	-12985
▁Fake	-12986
▁GUYS	-12987
▁HALF	-12988
▁Hamb	-12989
▁Look	-12990
▁NYPD	-12991
▁STEP	-12992
▁Stre	-12993
▁Thee	-12994
▁VARI	-12995
▁Vend	-12996
▁WORK	-12997
▁buck	-12998
▁carp	-12999
▁coco	-13000
▁cors	-13001
▁crut	-13002
▁data	-13003
▁dine	-13004
▁felt	-13005
▁fern	-13006
▁ford	-13007
▁hued	-13008
▁imag	-13009
▁juts	-13010
▁kilt	-13011
▁maid	-13012
▁mast	-13013
▁mein	-13014
▁nach	-13015
▁noon	-13016
▁pooh	-13017
▁pour	-13018
▁role	-13019
▁rush	-13020
▁silk	-13021
▁sips	-13022
▁sixt	-13023
▁soul	-13024
▁unpl	-13025
▁user	-13026
EDDING	-13027
agonal	-13028
antled	-13029
bridge	-13030
cially	-13031
closed	-13032
efully	-13033
hiches	-13034
nister	-13035
person	-13036
porate	-13037
styled	-13038
ueling	-13039
urally	-13040
uzzled	-13041
walled	-13042
▁ABOVE	-13043
▁Alley	-13044
▁BRUSH	-13045
▁Coast	-13046
▁Cooks	-13047
▁Delic	-13048
▁EATEN	-13049
▁Italy	-13050
▁Legos	-13051
▁Micro	-13052
▁Motel	-13053
▁RIVER	-13054
▁Rider	-13055
▁Rodeo	-13056
▁SHELF	-13057
▁SKIER	-13058
▁Short	-13059
▁Straw	-13060
▁adobe	-13061
▁advis	-13062
▁awful	-13063
▁cater	-13064
▁chari	-13065
▁cigar	-13066
▁crout	-13067
▁cubby	-13068
▁daisy	-13069
▁death	-13070
▁femin	-13071
▁fifth	-13072
▁flaps	-13073
▁fluid	-13074
▁flyer	-13075
▁gooey	-13076
▁grade	-13077
▁hutch	-13078
▁kneel	-13079
▁knoll	-13080
▁lilac	-13081
▁links	-13082
▁mamma	-13083
▁manue	-13084
▁mills	-13085
▁mixes	-13086
▁mules	-13087
▁navel	-13088
▁ninet	-13089
▁peson	-13090
▁scrun	-13091
▁sites	-13092
▁smirk	-13093
▁soaps	-13094
▁spear	-13095
▁spell	-13096
▁stake	-13097
▁steet	-13098
▁stenc	-13099
▁twist	-13100
▁unlit	-13101
▁vespa	-13102
▁villa	-13103
▁wiped	-13104
▁woody	-13105
▁wound	-13106
gyptian	-13107
ilantro	-13108
ilation	-13109
imposed	-13110
imsical	-13111
ingling	-13112
ishment	-13113
itution	-13114
otional	-13115
ounding	-13116
painted	-13117
rancing	-13118
vations	-13119
▁Athlet	-13120
▁BASKET	-13121
▁BRIDGE	-13122
▁Clouds	-13123
▁Contin	-13124
▁Crates	-13125
▁FRUITS	-13126
▁Flying	-13127
▁Gothic	-13128
▁Guitar	-13129
▁MICROW	-13130
▁Nicely	-13131
▁OFFICE	-13132
▁POLICE	-13133
▁Palace	-13134
▁Photos	-13135
▁Retrie	-13136
▁Sculpt	-13137
▁Spring	-13138
▁Stacks	-13139
▁Thames	-13140
▁Umpire	-13141
▁Vancou	-13142
▁actors	-13143
▁afghan	-13144
▁almond	-13145
▁ascent	-13146
▁atrium	-13147
▁bakers	-13148
▁bellow	-13149
▁breath	-13150
▁browse	-13151
▁carves	-13152
▁chilly	-13153
▁compos	-13154
▁convex	-13155
▁corded	-13156
▁crowns	-13157
▁cupola	-13158
▁edited	-13159
▁effort	-13160
▁embell	-13161
▁footed	-13162
▁glares	-13163
▁googly	-13164
▁grates	-13165
▁grumpy	-13166
▁happen	-13167
▁helped	-13168
▁intern	-13169
▁likely	-13170
▁listed	-13171
▁memory	-13172
▁mixers	-13173
▁opener	-13174
▁overla	-13175
▁piping	-13176
▁polish	-13177
▁ranger	-13178
▁raring	-13179
▁respon	-13180
▁review	-13181
▁scared	-13182
▁simult	-13183
▁staged	-13184
▁suites	-13185
▁tailed	-13186
▁tether	-13187
▁toiler	-13188
▁walnut	-13189
▁wizard	-13190
▁zoomed	-13191
atically	-13192
fortable	-13193
omotives	-13194
▁Blender	-13195
▁Desktop	-13196
▁FRIENDS	-13197
▁Grizzly	-13198
▁Hanging	-13199
▁LANDING	-13200
▁Mounted	-13201
▁Noodles	-13202
▁PASTURE	-13203
▁Parents	-13204
▁Sausage	-13205
▁Through	-13206
▁UNIFORM	-13207
▁Unusual	-13208
▁Wedding	-13209
▁Yankees	-13210
▁admires	-13211
▁assists	-13212
▁auction	-13213
▁awnings	-13214
▁barbers	-13215
▁bookbag	-13216
▁capital	-13217
▁careful	-13218
▁chillin	-13219
▁collaps	-13220
▁collide	-13221
▁crusted	-13222
▁curling	-13223
▁enjoyed	-13224
▁fielder	-13225
▁folders	-13226
▁fridges	-13227
▁gliders	-13228
▁grating	-13229
▁grinder	-13230
▁kettles	-13231
▁ladybug	-13232
▁lanyard	-13233
▁largest	-13234
▁lockers	-13235
▁locking	-13236
▁manhole	-13237
▁markets	-13238
▁marquee	-13239
▁merging	-13240
▁motorcy	-13241
▁nearest	-13242
▁nearing	-13243
▁nesting	-13244
▁outcrop	-13245
▁outward	-13246
▁padding	-13247
▁posting	-13248
▁selfies	-13249
▁sheriff	-13250
▁sundown	-13251
▁sweeper	-13252
▁tablets	-13253
▁tickets	-13254
▁trooper	-13255
▁trouble	-13256
▁trucked	-13257
▁trumpet	-13258
▁unbaked	-13259
▁wilting	-13260
▁wreaths	-13261
decorated	-13262
▁CARRIAGE	-13263
▁Hospital	-13264
▁Hundreds	-13265
▁Southern	-13266
▁advanced	-13267
▁applying	-13268
▁avoiding	-13269
▁burritos	-13270
▁cabbages	-13271
▁clinging	-13272
▁clutches	-13273
▁crumbled	-13274
▁diffrent	-13275
▁disabled	-13276
▁dividing	-13277
▁donation	-13278
▁drenched	-13279
▁entirely	-13280
▁extravag	-13281
▁graduate	-13282
▁handbags	-13283
▁huddling	-13284
▁innocent	-13285
▁jousting	-13286
▁launches	-13287
▁lobsters	-13288
▁lollipop	-13289
▁mechanic	-13290
▁operator	-13291
▁outlined	-13292
▁overcoat	-13293
▁parakeet	-13294
▁peperoni	-13295
▁pigtails	-13296
▁powerful	-13297
▁ripening	-13298
▁services	-13299
▁shadowed	-13300
▁sideline	-13301
▁sledding	-13302
▁sombrero	-13303
▁stunning	-13304
▁tailgate	-13305
▁tranquil	-13306
▁traveled	-13307
▁uncommon	-13308
▁wardrobe	-13309
▁whiskers	-13310
▁woodland	-13311
▁wrestler	-13312
▁Elizabeth	-13313
▁Livestock	-13314
▁MOUNTAINS	-13315
▁Vancouver	-13316
▁accessory	-13317
▁authentic	-13318
▁backsides	-13319
▁boulevard	-13320
▁brochures	-13321
▁clipboard	-13322
▁comically	-13323
▁cosmetics	-13324
▁departure	-13325
▁detailing	-13326
▁downwards	-13327
▁exception	-13328
▁greyhound	-13329
▁happening	-13330
▁mailboxes	-13331
▁parasails	-13332
▁purchased	-13333
▁realistic	-13334
▁scallions	-13335
▁scratched	-13336
▁screaming	-13337
▁simulator	-13338
▁sparklers	-13339
▁squeezing	-13340
▁starbucks	-13341
▁stillness	-13342
▁taxidermy	-13343
▁telescope	-13344
▁toothpick	-13345
▁vehicular	-13346
▁welcoming	-13347
▁Collection	-13348
▁Parliament	-13349
▁announcing	-13350
▁assembling	-13351
▁courthouse	-13352
▁crossbones	-13353
▁crossroads	-13354
▁determined	-13355
▁dismantled	-13356
▁enclosures	-13357
▁footprints	-13358
▁graffitied	-13359
▁lightening	-13360
▁mysterious	-13361
▁prosciutto	-13362
▁relatively	-13363
▁sprinkling	-13364
▁standstill	-13365
▁Directional	-13366
▁fashionable	-13367
▁institution	-13368
▁kitesurfing	-13369
▁unfurnished	-13370
▁windsurfers	-13371
▁aggressively	-13372
▁blackberries	-13373
▁coordinating	-13374
▁organization	-13375
▁pomegranates	-13376
▁simultaneous	-13377
▁superimposed	-13378
▁international	-13379
-1	-13380
60	-13381
HT	-13382
IP	-13383
MA	-13384
iw	-13385
mn	-13386
xy	-13387
:20	-13388
AUR	-13389
ENS	-13390
ERA	-13391
OLD	-13392
OLE	-13393
OOK	-13394
RAW	-13395
aco	-13396
bre	-13397
cre	-13398
eef	-13399
eer	-13400
eno	-13401
gul	-13402
how	-13403
igr	-13404
pip	-13405
uct	-13406
ueb	-13407
▁24	-13408
▁54	-13409
▁DJ	-13410
▁ED	-13411
▁EX	-13412
▁My	-13413
▁Ox	-13414
▁Pa	-13415
▁Su	-13416
▁aa	-13417
▁kk	-13418
▁oy	-13419
▁pm	-13420
▁rd	-13421
CKER	-13422
RIES	-13423
aran	-13424
ardi	-13425
atar	-13426
bber	-13427
bert	-13428
bour	-13429
brid	-13430
bull	-13431
burg	-13432
ccor	-13433
clad	-13434
ddar	-13435
eple	-13436
five	-13437
home	-13438
iams	-13439
illy	-13440
iron	-13441
izes	-13442
lear	-13443
more	-13444
nsyl	-13445
odka	-13446
omic	-13447
orge	-13448
pane	-13449
pill	-13450
quis	-13451
risp	-13452
roof	-13453
rust	-13454
soft	-13455
umbs	-13456
xico	-13457
ygen	-13458
zona	-13459
▁ANA	-13460
▁Att	-13461
▁But	-13462
▁CAP	-13463
▁Cru	-13464
▁Fut	-13465
▁Goo	-13466
▁HEL	-13467
▁INT	-13468
▁Ice	-13469
▁Its	-13470
▁KLM	-13471
▁Ken	-13472
▁LID	-13473
▁MAT	-13474
▁Mis	-13475
▁NEW	-13476
▁NOT	-13477
▁SCH	-13478
▁SHO	-13479
▁SIZ	-13480
▁SUB	-13481
▁SUP	-13482
▁Sup	-13483
▁USB	-13484
▁abs	-13485
▁bob	-13486
▁ess	-13487
▁fid	-13488
▁hey	-13489
▁imm	-13490
▁ion	-13491
▁iss	-13492
▁kab	-13493
▁kil	-13494
▁nad	-13495
▁peg	-13496
▁stn	-13497
▁une	-13498
▁unm	-13499
▁unz	-13500
▁wth	-13501
ITURE	-13502
OTHER	-13503
amous	-13504
athon	-13505
atown	-13506
birds	-13507
empty	-13508
ingly	-13509
ision	-13510
juana	-13511
mings	-13512
mping	-13513
night	-13514
noyed	-13515
onnie	-13516
ordic	-13517
paste	-13518
psite	-13519
tland	-13520
vania	-13521
▁Appl	-13522
▁Beef	-13523
▁CHOC	-13524
▁COMM	-13525
▁Camp	-13526
▁Chin	-13527
▁Coll	-13528
▁Dual	-13529
▁Each	-13530
▁Emer	-13531
▁FACE	-13532
▁FURN	-13533
▁Fast	-13534
▁Feet	-13535
▁Full	-13536
▁Furn	-13537
▁Ipod	-13538
▁Iris	-13539
▁LAKE	-13540
▁LAUG	-13541
▁Legs	-13542
▁Mary	-13543
▁Mets	-13544
▁NECK	-13545
▁Near	-13546
▁Pers	-13547
▁STAT	-13548
▁Sing	-13549
▁Skis	-13550
▁Stir	-13551
▁acce	-13552
▁budd	-13553
▁bugs	-13554
▁chap	-13555
▁core	-13556
▁dice	-13557
▁dull	-13558
▁fowl	-13559
▁fres	-13560
▁gril	-13561
▁hurt	-13562
▁icon	-13563
▁idea	-13564
▁kill	-13565
▁leag	-13566
▁maps	-13567
▁mort	-13568
▁peal	-13569
▁pike	-13570
▁quad	-13571
▁ripp	-13572
▁save	-13573
▁slid	-13574
▁slip	-13575
▁soar	-13576
▁ster	-13577
▁sumo	-13578
▁susp	-13579
▁teet	-13580
▁thri	-13581
▁thro	-13582
▁wast	-13583
▁weig	-13584
▁wipe	-13585
ACHING	-13586
AURANT	-13587
EEDING	-13588
addled	-13589
arking	-13590
astern	-13591
ckshaw	-13592
decked	-13593
drying	-13594
engine	-13595
entric	-13596
fridge	-13597
malade	-13598
racted	-13599
topped	-13600
ummies	-13601
urning	-13602
▁CLOTH	-13603
▁Harry	-13604
▁Lucky	-13605
▁Organ	-13606
▁PRACT	-13607
▁REFLE	-13608
▁Shoes	-13609
▁Storm	-13610
▁TRASH	-13611
▁Thick	-13612
▁Times	-13613
▁apric	-13614
▁baseb	-13615
▁boars	-13616
▁boxer	-13617
▁caked	-13618
▁clams	-13619
▁clipp	-13620
▁crink	-13621
▁crude	-13622
▁decre	-13623
▁disco	-13624
▁disks	-13625
▁doves	-13626
▁eager	-13627
▁facet	-13628
▁fives	-13629
▁flask	-13630
▁flows	-13631
▁frown	-13632
▁gowns	-13633
▁loses	-13634
▁meand	-13635
▁meant	-13636
▁overt	-13637
▁pared	-13638
▁preen	-13639
▁pride	-13640
▁robin	-13641
▁sched	-13642
▁sewer	-13643
▁snows	-13644
▁stead	-13645
▁stree	-13646
▁surge	-13647
▁thous	-13648
▁tiers	-13649
▁toped	-13650
▁union	-13651
▁urine	-13652
▁vitam	-13653
▁whirl	-13654
▁wispy	-13655
▁wrang	-13656
▁yawns	-13657
▁yells	-13658
between	-13659
chester	-13660
ificent	-13661
ilities	-13662
initely	-13663
istoric	-13664
itement	-13665
ulating	-13666
wearing	-13667
wheeled	-13668
▁CAMERA	-13669
▁DOUBLE	-13670
▁During	-13671
▁Engine	-13672
▁Floral	-13673
▁Ground	-13674
▁Lounge	-13675
▁Malays	-13676
▁NEARBY	-13677
▁Nordic	-13678
▁PLATES	-13679
▁Pickup	-13680
▁Riders	-13681
▁SCHOOL	-13682
▁Thanks	-13683
▁Toyota	-13684
▁Twelve	-13685
▁Unique	-13686
▁amazed	-13687
▁applic	-13688
▁associ	-13689
▁batman	-13690
▁bovine	-13691
▁brilli	-13692
▁casino	-13693
▁cinder	-13694
▁clover	-13695
▁crowed	-13696
▁crusts	-13697
▁curves	-13698
▁dances	-13699
▁danish	-13700
▁darkly	-13701
▁dollop	-13702
▁downed	-13703
▁duster	-13704
▁etched	-13705
▁fading	-13706
▁fiving	-13707
▁flakes	-13708
▁flutes	-13709
▁former	-13710
▁frizbe	-13711
▁frosty	-13712
▁fulled	-13713
▁gallop	-13714
▁geared	-13715
▁grooms	-13716
▁guinea	-13717
▁jammed	-13718
▁judges	-13719
▁llamas	-13720
▁loader	-13721
▁mickey	-13722
▁oxygen	-13723
▁pearls	-13724
▁peeler	-13725
▁please	-13726
▁ranges	-13727
▁reason	-13728
▁restra	-13729
▁rimmed	-13730
▁ruined	-13731
▁rushes	-13732
▁scraps	-13733
▁scrubs	-13734
▁shabby	-13735
▁singer	-13736
▁slider	-13737
▁smoked	-13738
▁soiled	-13739
▁spears	-13740
▁stoned	-13741
▁sturdy	-13742
▁surger	-13743
▁swords	-13744
▁talkie	-13745
▁tangle	-13746
▁tended	-13747
▁theres	-13748
▁undone	-13749
▁varied	-13750
▁waring	-13751
▁wiring	-13752
▁zipper	-13753
ensional	-13754
iseshell	-13755
▁ANOTHER	-13756
▁Candles	-13757
▁Cooking	-13758
▁Farmers	-13759
▁Fashion	-13760
▁Germany	-13761
▁ORANGES	-13762
▁PASSENG	-13763
▁Pennsyl	-13764
▁Strange	-13765
▁Streets	-13766
▁Terrier	-13767
▁VEGGIES	-13768
▁WEDDING	-13769
▁armored	-13770
▁arrival	-13771
▁astride	-13772
▁billows	-13773
▁booties	-13774
▁borders	-13775
▁bottoms	-13776
▁bridled	-13777
▁buckled	-13778
▁carcass	-13779
▁carpets	-13780
▁charity	-13781
▁cheddar	-13782
▁collars	-13783
▁correct	-13784
▁cutouts	-13785
▁discuss	-13786
▁dishing	-13787
▁engages	-13788
▁feeders	-13789
▁frisbie	-13790
▁gallops	-13791
▁goodbye	-13792
▁italian	-13793
▁journey	-13794
▁largely	-13795
▁lookers	-13796
▁lookout	-13797
▁manmade	-13798
▁netbook	-13799
▁outline	-13800
▁pendant	-13801
▁plaster	-13802
▁pleased	-13803
▁portray	-13804
▁prepped	-13805
▁purpose	-13806
▁reached	-13807
▁sending	-13808
▁shirted	-13809
▁sinking	-13810
▁skilled	-13811
▁slowing	-13812
▁stabbed	-13813
▁studies	-13814
▁sundaes	-13815
▁touched	-13816
▁wagging	-13817
▁whether	-13818
▁wrestle	-13819
omeranian	-13820
▁Desserts	-13821
▁KEYBOARD	-13822
▁Potatoes	-13823
▁Scottish	-13824
▁Williams	-13825
▁attracts	-13826
▁bleeding	-13827
▁brownish	-13828
▁campsite	-13829
▁cartoons	-13830
▁chestnut	-13831
▁cilantro	-13832
▁compared	-13833
▁cookbook	-13834
▁croutons	-13835
▁crutches	-13836
▁delicate	-13837
▁dolphins	-13838
▁drainage	-13839
▁dribbles	-13840
▁elements	-13841
▁executes	-13842
▁feminine	-13843
▁footlong	-13844
▁footpath	-13845
▁giraffee	-13846
▁grimaces	-13847
▁infamous	-13848
▁intended	-13849
▁jumpsuit	-13850
▁kickflip	-13851
▁kneepads	-13852
▁lavishly	-13853
▁marathon	-13854
▁mingling	-13855
▁newlywed	-13856
▁original	-13857
▁overripe	-13858
▁parading	-13859
▁prepping	-13860
▁protects	-13861
▁quantity	-13862
▁reacting	-13863
▁recessed	-13864
▁replaced	-13865
▁rooftops	-13866
▁rotating	-13867
▁saucepan	-13868
▁scantily	-13869
▁skewered	-13870
▁spooning	-13871
▁stomachs	-13872
▁twirling	-13873
▁writings	-13874
▁BUILDINGS	-13875
▁Cathedral	-13876
▁DOUGHNUTS	-13877
▁FURNITURE	-13878
▁Retriever	-13879
▁animation	-13880
▁artichoke	-13881
▁barstools	-13882
▁bordering	-13883
▁clippings	-13884
▁collected	-13885
▁colliding	-13886
▁completed	-13887
▁creatures	-13888
▁dalmation	-13889
▁dedicated	-13890
▁efficient	-13891
▁envelopes	-13892
▁essential	-13893
▁excellent	-13894
▁foothills	-13895
▁handrails	-13896
▁hashbrown	-13897
▁headphone	-13898
▁interacts	-13899
▁lampposts	-13900
▁marmalade	-13901
▁messenger	-13902
▁musicians	-13903
▁partaking	-13904
▁protrudes	-13905
▁redheaded	-13906
▁regarding	-13907
▁sailboard	-13908
▁shoveling	-13909
▁succulent	-13910
▁trimmings	-13911
▁unplugged	-13912
▁untouched	-13913
▁unwrapped	-13914
▁workbench	-13915
▁APPLIANCES	-13916
▁RESTAURANT	-13917
▁Volkswagon	-13918
▁adolescent	-13919
▁concession	-13920
▁contending	-13921
▁creatively	-13922
▁definitely	-13923
▁dinnerware	-13924
▁excitement	-13925
▁installing	-13926
▁motorcylce	-13927
▁multicolor	-13928
▁overlooked	-13929
▁politician	-13930
▁propellors	-13931
▁sunbathers	-13932
▁suspicious	-13933
▁whiteboard	-13934
▁Continental	-13935
▁Electronics	-13936
▁MOTORCYCLES	-13937
▁articulated	-13938
▁competitors	-13939
▁dimensional	-13940
▁extravagant	-13941
▁locomotives	-13942
▁magnificent	-13943
▁prominently	-13944
▁renovations	-13945
▁smartphones	-13946
▁streamlined	-13947
▁wakeboarder	-13948
▁Pennsylvania	-13949
▁conventional	-13950
▁disassembled	-13951
▁individually	-13952
▁installation	-13953
▁refreshments	-13954
▁refrigerated	-13955
▁representing	-13956
▁skateboarded	-13957
▁professionally	-13958
▁simultaneously	-13959
).	-13960
6.	-13961
AK	-13962
DE	-13963
DO	-13964
JO	-13965
TE	-13966
Th	-13967
fa	-13968
wy	-13969
Air	-13970
BER	-13971
COL	-13972
EEN	-13973
ETH	-13974
IMM	-13975
ISH	-13976
TTY	-13977
Two	-13978
ada	-13979
bie	-13980
cap	-13981
die	-13982
ios	-13983
isc	-13984
jet	-13985
lon	-13986
lyn	-13987
nal	-13988
non	-13989
olk	-13990
rey	-13991
ups	-13992
ura	-13993
urb	-13994
uve	-13995
zzy	-13996
▁14	-13997
▁15	-13998
▁35	-13999
▁40	-14000
▁42	-14001
▁Ba	-14002
▁Bu	-14003
▁Da	-14004
▁FO	-14005
▁GI	-14006
▁Ju	-14007
▁MI	-14008
▁UR	-14009
▁ax	-14010
▁il	-14011
▁ze	-14012
AIRS	-14013
AMES	-14014
ANCH	-14015
ANES	-14016
ASES	-14017
ATOR	-14018
ENTS	-14019
IDES	-14020
UNCH	-14021
aber	-14022
akes	-14023
atin	-14024
atta	-14025
avan	-14026
bowl	-14027
bows	-14028
dees	-14029
ebas	-14030
eber	-14031
erce	-14032
erie	-14033
fire	-14034
ford	-14035
hirt	-14036
into	-14037
iter	-14038
jack	-14039
maid	-14040
mond	-14041
most	-14042
mote	-14043
nies	-14044
onds	-14045
phia	-14046
rael	-14047
rola	-14048
sink	-14049
udes	-14050
zuki	-14051
▁200	-14052
▁350	-14053
▁Aer	-14054
▁Ann	-14055
▁Bak	-14056
▁CRT	-14057
▁Cra	-14058
▁Dew	-14059
▁END	-14060
▁EYE	-14061
▁Equ	-14062
▁Fin	-14063
▁Fis	-14064
▁Fro	-14065
▁Inn	-14066
▁LAD	-14067
▁LED	-14068
▁Lay	-14069
▁Low	-14070
▁Mem	-14071
▁Now	-14072
▁PAL	-14073
▁PAN	-14074
▁RET	-14075
▁ROW	-14076
▁SPO	-14077
▁Sum	-14078
▁Syd	-14079
▁Tea	-14080
▁Twp	-14081
▁UPS	-14082
▁Wat	-14083
▁alf	-14084
▁cha	-14085
▁dew	-14086
▁fif	-14087
▁foi	-14088
▁gal	-14089
▁mir	-14090
▁oin	-14091
▁ona	-14092
▁pew	-14093
▁pip	-14094
▁ray	-14095
▁rye	-14096
▁sch	-14097
▁suv	-14098
▁swo	-14099
▁tat	-14100
▁tye	-14101
▁una	-14102
▁wad	-14103
▁zer	-14104
BRUSH	-14105
HERED	-14106
OLATE	-14107
THDAY	-14108
acher	-14109
acled	-14110
arate	-14111
based	-14112
cling	-14113
comes	-14114
enact	-14115
ested	-14116
holic	-14117
iance	-14118
istan	-14119
liced	-14120
meted	-14121
nants	-14122
orama	-14123
pants	-14124
reads	-14125
retty	-14126
sided	-14127
tiled	-14128
ureau	-14129
vised	-14130
watch	-14131
wheel	-14132
while	-14133
▁2012	-14134
▁Brus	-14135
▁Buff	-14136
▁CATS	-14137
▁CURB	-14138
▁Cart	-14139
▁Cost	-14140
▁Cubs	-14141
▁Does	-14142
▁ENJO	-14143
▁FIVE	-14144
▁Fork	-14145
▁Game	-14146
▁Groc	-14147
▁Hero	-14148
▁Jeep	-14149
▁Just	-14150
▁LOOK	-14151
▁Mart	-14152
▁Oven	-14153
▁PICK	-14154
▁PROD	-14155
▁SHOP	-14156
▁Show	-14157
▁TIME	-14158
▁Taxi	-14159
▁Thin	-14160
▁Toys	-14161
▁Trol	-14162
▁WHAT	-14163
▁Waff	-14164
▁airy	-14165
▁auth	-14166
▁bail	-14167
▁bard	-14168
▁chem	-14169
▁chic	-14170
▁cobb	-14171
▁coop	-14172
▁decl	-14173
▁desp	-14174
▁dood	-14175
▁doug	-14176
▁earb	-14177
▁ease	-14178
▁espe	-14179
▁fart	-14180
▁firm	-14181
▁flap	-14182
▁glad	-14183
▁goof	-14184
▁grav	-14185
▁harm	-14186
▁hull	-14187
▁hush	-14188
▁lacy	-14189
▁leak	-14190
▁owls	-14191
▁phys	-14192
▁posh	-14193
▁prow	-14194
▁purs	-14195
▁rick	-14196
▁rumb	-14197
▁send	-14198
▁slug	-14199
▁surv	-14200
▁swat	-14201
▁tear	-14202
▁toga	-14203
▁urin	-14204
▁weap	-14205
▁wond	-14206
▁wren	-14207
acture	-14208
amples	-14209
atever	-14210
atters	-14211
aution	-14212
crafts	-14213
crosse	-14214
driver	-14215
elding	-14216
etroit	-14217
idents	-14218
ieving	-14219
izzard	-14220
minate	-14221
mother	-14222
opment	-14223
outing	-14224
owered	-14225
pillar	-14226
rellas	-14227
ritain	-14228
▁AMONG	-14229
▁Amish	-14230
▁Autom	-14231
▁Blueb	-14232
▁Brand	-14233
▁CLEAN	-14234
▁CLEAR	-14235
▁Clown	-14236
▁Elvis	-14237
▁Falls	-14238
▁Fifth	-14239
▁Fully	-14240
▁Guard	-14241
▁Irish	-14242
▁Knife	-14243
▁LINED	-14244
▁POLAR	-14245
▁Pairs	-14246
▁Paras	-14247
▁Party	-14248
▁STILL	-14249
▁SWIMM	-14250
▁Salad	-14251
▁Smart	-14252
▁TEETH	-14253
▁THROW	-14254
▁Youth	-14255
▁bails	-14256
▁bleak	-14257
▁bones	-14258
▁brave	-14259
▁bumps	-14260
▁caddy	-14261
▁calfs	-14262
▁cashe	-14263
▁chart	-14264
▁cheap	-14265
▁click	-14266
▁dodge	-14267
▁elder	-14268
▁encom	-14269
▁erase	-14270
▁escor	-14271
▁fifty	-14272
▁final	-14273
▁forms	-14274
▁hippo	-14275
▁hoods	-14276
▁illeg	-14277
▁immed	-14278
▁incor	-14279
▁kreme	-14280
▁latte	-14281
▁liter	-14282
▁lived	-14283
▁lorry	-14284
▁modem	-14285
▁momma	-14286
▁negot	-14287
▁north	-14288
▁ontop	-14289
▁pines	-14290
▁plats	-14291
▁pools	-14292
▁poppy	-14293
▁prone	-14294
▁raise	-14295
▁regal	-14296
▁saver	-14297
▁shave	-14298
▁silos	-14299
▁since	-14300
▁snail	-14301
▁soups	-14302
▁spind	-14303
▁stays	-14304
▁talbe	-14305
▁teach	-14306
▁trium	-14307
▁turnt	-14308
▁twine	-14309
▁unatt	-14310
▁usual	-14311
▁valve	-14312
▁vodka	-14313
▁vying	-14314
▁waxed	-14315
▁wharf	-14316
▁whats	-14317
▁whizz	-14318
ference	-14319
licated	-14320
onniere	-14321
ractive	-14322
related	-14323
stalled	-14324
surfing	-14325
▁BRANCH	-14326
▁Bakery	-14327
▁Behind	-14328
▁Butter	-14329
▁Christ	-14330
▁DECKER	-14331
▁DONUTS	-14332
▁Diners	-14333
▁Grapes	-14334
▁Hammer	-14335
▁Hotdog	-14336
▁Houses	-14337
▁Images	-14338
▁Indoor	-14339
▁Iphone	-14340
▁Lonely	-14341
▁MAKING	-14342
▁MARKET	-14343
▁Onions	-14344
▁PRETTY	-14345
▁PURPLE	-14346
▁Pretty	-14347
▁REALLY	-14348
▁STATUE	-14349
▁Sydney	-14350
▁Tagged	-14351
▁Venice	-14352
▁WATERS	-14353
▁Wonder	-14354
▁beaten	-14355
▁beetle	-14356
▁boxcar	-14357
▁boxers	-14358
▁bureau	-14359
▁chance	-14360
▁chewed	-14361
▁condom	-14362
▁crepes	-14363
▁crests	-14364
▁dancer	-14365
▁delect	-14366
▁divers	-14367
▁dumped	-14368
▁ending	-14369
▁expect	-14370
▁eyeing	-14371
▁fender	-14372
▁fierce	-14373
▁flickr	-14374
▁floret	-14375
▁fluore	-14376
▁freest	-14377
▁gourds	-14378
▁graham	-14379
▁greets	-14380
▁grills	-14381
▁hauled	-14382
▁headsc	-14383
▁hearth	-14384
▁hosing	-14385
▁hybrid	-14386
▁juices	-14387
▁kennel	-14388
▁layout	-14389
▁lieing	-14390
▁mandar	-14391
▁manger	-14392
▁medals	-14393
▁medley	-14394
▁nozzle	-14395
▁oceans	-14396
▁paired	-14397
▁pasted	-14398
▁redone	-14399
▁restri	-14400
▁routes	-14401
▁safely	-14402
▁scones	-14403
▁scouts	-14404
▁settee	-14405
▁shaves	-14406
▁shelfs	-14407
▁shores	-14408
▁slushy	-14409
▁somber	-14410
▁stamps	-14411
▁strain	-14412
▁strate	-14413
▁stroke	-14414
▁struck	-14415
▁tender	-14416
▁tented	-14417
▁uneven	-14418
▁untied	-14419
▁victor	-14420
▁violet	-14421
▁warped	-14422
▁webcam	-14423
▁wholly	-14424
▁wintry	-14425
▁wishes	-14426
alentine	-14427
estrians	-14428
ifferent	-14429
indrical	-14430
ongratul	-14431
▁APPEARS	-14432
▁Airline	-14433
▁Arizona	-14434
▁Atlanta	-14435
▁Colgate	-14436
▁Colored	-14437
▁Detroit	-14438
▁Eastern	-14439
▁FEEDING	-14440
▁Getting	-14441
▁Holiday	-14442
▁Kingdom	-14443
▁Oakland	-14444
▁PUTTING	-14445
▁Playing	-14446
▁SETTING	-14447
▁Special	-14448
▁Striped	-14449
▁Toasted	-14450
▁Tourist	-14451
▁VARIETY	-14452
▁Warning	-14453
▁Wiimote	-14454
▁antlers	-14455
▁beanbag	-14456
▁boaters	-14457
▁boxcars	-14458
▁british	-14459
▁browned	-14460
▁bullpen	-14461
▁circuit	-14462
▁compass	-14463
▁confine	-14464
▁cooktop	-14465
▁croquet	-14466
▁cubical	-14467
▁diorama	-14468
▁dummies	-14469
▁dunking	-14470
▁dwarfed	-14471
▁earlier	-14472
▁exactly	-14473
▁example	-14474
▁explore	-14475
▁eyeball	-14476
▁flushed	-14477
▁framing	-14478
▁general	-14479
▁gnawing	-14480
▁grandma	-14481
▁handset	-14482
▁hangers	-14483
▁highest	-14484
▁hoisted	-14485
▁hopping	-14486
▁hundred	-14487
▁improve	-14488
▁lattice	-14489
▁lessons	-14490
▁lookign	-14491
▁looming	-14492
▁matress	-14493
▁modeled	-14494
▁movable	-14495
▁papered	-14496
▁patting	-14497
▁pebbles	-14498
▁pickled	-14499
▁plaques	-14500
▁precari	-14501
▁propane	-14502
▁puddles	-14503
▁pumping	-14504
▁ratchet	-14505
▁rubbish	-14506
▁runaway	-14507
▁sauteed	-14508
▁scrubby	-14509
▁shapped	-14510
▁shoving	-14511
▁snuggle	-14512
▁strokes	-14513
▁styling	-14514
▁suburbs	-14515
▁suggest	-14516
▁supreme	-14517
▁surgery	-14518
▁trapped	-14519
▁usually	-14520
▁zooming	-14521
pectacled	-14522
▁Crossing	-14523
▁Doughnut	-14524
▁ENJOYING	-14525
▁Helmeted	-14526
▁LAUGHING	-14527
▁Motorola	-14528
▁Numerals	-14529
▁SWINGING	-14530
▁Teenager	-14531
▁abundant	-14532
▁blizzard	-14533
▁canadian	-14534
▁carriers	-14535
▁cemetary	-14536
▁ceramics	-14537
▁checkers	-14538
▁checkout	-14539
▁chilling	-14540
▁clicking	-14541
▁clippers	-14542
▁crescent	-14543
▁cubicles	-14544
▁culinary	-14545
▁decrepit	-14546
▁drooping	-14547
▁dwelling	-14548
▁emptying	-14549
▁examined	-14550
▁included	-14551
▁inflated	-14552
▁lacrosse	-14553
▁lakeside	-14554
▁manufact	-14555
▁menacing	-14556
▁modeling	-14557
▁mosquito	-14558
▁negative	-14559
▁pamphlet	-14560
▁pipeline	-14561
▁playroom	-14562
▁popsicle	-14563
▁receiver	-14564
▁releases	-14565
▁reporter	-14566
▁rickshaw	-14567
▁sculpted	-14568
▁splashed	-14569
▁tackling	-14570
▁teachers	-14571
▁textbook	-14572
▁toasters	-14573
▁treetops	-14574
▁turbines	-14575
▁unfolded	-14576
▁upturned	-14577
▁walkways	-14578
▁wrenches	-14579
▁CHOCOLATE	-14580
▁Chinatown	-14581
▁Commuters	-14582
▁ENCLOSURE	-14583
▁Emergency	-14584
▁MICROWAVE	-14585
▁Microsoft	-14586
▁Mushrooms	-14587
▁Nighttime	-14588
▁SNOWBOARD	-14589
▁Surfboard	-14590
▁appealing	-14591
▁bannister	-14592
▁cornbread	-14593
▁disembark	-14594
▁escorting	-14595
▁homeplate	-14596
▁intercept	-14597
▁mimicking	-14598
▁occupants	-14599
▁refueling	-14600
▁retaining	-14601
▁riverboat	-14602
▁servicing	-14603
▁specially	-14604
▁streaking	-14605
▁swimsuits	-14606
▁technique	-14607
▁thousands	-14608
▁trashcans	-14609
▁triangles	-14610
▁unpainted	-14611
▁viewpoint	-14612
▁whimsical	-14613
▁wrangling	-14614
▁wristband	-14615
▁zookeeper	-14616
▁Everything	-14617
▁Toothbrush	-14618
▁Toothpaste	-14619
▁Tupperware	-14620
▁Vietnamese	-14621
▁advertised	-14622
▁artichokes	-14623
▁beachfront	-14624
▁bedspreads	-14625
▁cautiously	-14626
▁delectable	-14627
▁especially	-14628
▁experiment	-14629
▁fascinated	-14630
▁girlfriend	-14631
▁intriguing	-14632
▁minimalist	-14633
▁monochrome	-14634
▁paintbrush	-14635
▁recreation	-14636
▁sandwiched	-14637
▁scoreboard	-14638
▁tastefully	-14639
▁tupperware	-14640
▁watercraft	-14641
▁Advertising	-14642
▁Traditional	-14643
▁boutonniere	-14644
▁candlelight	-14645
▁caterpillar	-14646
▁complicated	-14647
▁cranberries	-14648
▁development	-14649
▁electricity	-14650
▁expressions	-14651
▁fluorescent	-14652
▁grandmother	-14653
▁intertwined	-14654
▁manufacture	-14655
▁promotional	-14656
▁sandwhiches	-14657
▁transformed	-14658
▁Thanksgiving	-14659
▁appreciating	-14660
▁illuminating	-14661
▁personalized	-14662
▁successfully	-14663
▁surfboarders	-14664
▁intersections	-14665
▁tortoiseshell	-14666
▁uncomfortable	-14667
▁congratulating	-14668
,,	-14669
20	-14670
8.	-14671
CD	-14672
FC	-14673
MY	-14674
NA	-14675
OD	-14676
TA	-14677
TV	-14678
ga	-14679
ji	-14680
li	-14681
sl	-14682
va	-14683
ATO	-14684
ELY	-14685
GER	-14686
IFE	-14687
IRE	-14688
RAP	-14689
VIS	-14690
aar	-14691
aly	-14692
any	-14693
bby	-14694
bot	-14695
chy	-14696
gic	-14697
hma	-14698
iar	-14699
inj	-14700
lam	-14701
lim	-14702
mod	-14703
mus	-14704
opy	-14705
osc	-14706
oys	-14707
sts	-14708
uar	-14709
ulf	-14710
une	-14711
▁$1	-14712
▁22	-14713
▁3-	-14714
▁70	-14715
▁AG	-14716
▁CP	-14717
▁Ka	-14718
▁Ut	-14719
▁br	-14720
▁dj	-14721
:00.	-14722
ADED	-14723
AKES	-14724
IGER	-14725
LING	-14726
TIGN	-14727
ador	-14728
aple	-14729
apor	-14730
auce	-14731
ault	-14732
bath	-14733
bury	-14734
clot	-14735
cock	-14736
dged	-14737
enas	-14738
gher	-14739
grap	-14740
hist	-14741
igur	-14742
iors	-14743
laim	-14744
lesh	-14745
lorn	-14746
odor	-14747
oldy	-14748
ours	-14749
page	-14750
pole	-14751
rait	-14752
redo	-14753
rous	-14754
ruck	-14755
step	-14756
stra	-14757
tens	-14758
unda	-14759
uven	-14760
vane	-14761
▁193	-14762
▁BLE	-14763
▁Bis	-14764
▁CRE	-14765
▁Cit	-14766
▁DUR	-14767
▁EXT	-14768
▁GET	-14769
▁Glo	-14770
▁Hil	-14771
▁Jew	-14772
▁MOM	-14773
▁Mel	-14774
▁Pas	-14775
▁Pri	-14776
▁Rub	-14777
▁SET	-14778
▁SHE	-14779
▁SPR	-14780
▁Saf	-14781
▁Sam	-14782
▁See	-14783
▁Sur	-14784
▁Woo	-14785
▁baz	-14786
▁cou	-14787
▁dar	-14788
▁die	-14789
▁duo	-14790
▁gag	-14791
▁gau	-14792
▁haw	-14793
▁ign	-14794
▁jun	-14795
▁len	-14796
▁ore	-14797
▁ori	-14798
▁pom	-14799
▁swi	-14800
▁unw	-14801
ACHED	-14802
ACING	-14803
ELING	-14804
ICING	-14805
PHONE	-14806
agoda	-14807
ained	-14808
amped	-14809
basin	-14810
blems	-14811
cotta	-14812
court	-14813
cover	-14814
elfie	-14815
habit	-14816
hetic	-14817
ibles	-14818
ights	-14819
iliar	-14820
izers	-14821
lapse	-14822
lover	-14823
ories	-14824
otive	-14825
psons	-14826
ramed	-14827
rated	-14828
riage	-14829
rince	-14830
shore	-14831
stery	-14832
stros	-14833
ueled	-14834
umped	-14835
under	-14836
vable	-14837
▁BEDS	-14838
▁Bank	-14839
▁Base	-14840
▁Bran	-14841
▁Care	-14842
▁Circ	-14843
▁Club	-14844
▁DOCK	-14845
▁Deli	-14846
▁Dock	-14847
▁Dump	-14848
▁EDGE	-14849
▁FORE	-14850
▁Gran	-14851
▁HOLE	-14852
▁Hall	-14853
▁Hyde	-14854
▁Manh	-14855
▁Must	-14856
▁PEPP	-14857
▁POOL	-14858
▁Pole	-14859
▁Pull	-14860
▁RACE	-14861
▁Race	-14862
▁Rams	-14863
▁SCEN	-14864
▁SING	-14865
▁SIZE	-14866
▁STRI	-14867
▁Stew	-14868
▁THER	-14869
▁TILE	-14870
▁TOWN	-14871
▁Tort	-14872
▁afro	-14873
▁answ	-14874
▁avid	-14875
▁brat	-14876
▁casc	-14877
▁clam	-14878
▁dent	-14879
▁dumb	-14880
▁emph	-14881
▁flex	-14882
▁flot	-14883
▁glis	-14884
▁glob	-14885
▁gong	-14886
▁hops	-14887
▁jams	-14888
▁jock	-14889
▁laun	-14890
▁migr	-14891
▁mold	-14892
▁nerd	-14893
[...]
